#include "magic_wand_model_data.h"

// We need to keep the data array aligned on some architectures.
#ifdef __has_attribute
#define HAVE_ATTRIBUTE(x) __has_attribute(x)
#else
#define HAVE_ATTRIBUTE(x) 0
#endif
#if HAVE_ATTRIBUTE(aligned) || (defined(__GNUC__) && !defined(__clang__))
#define DATA_ALIGN_ATTRIBUTE __attribute__((aligned(4)))
#else
#define DATA_ALIGN_ATTRIBUTE
#endif

const unsigned char g_magic_wand_model_data[] DATA_ALIGN_ATTRIBUTE = {
  // Paste the data of the char array in `src/model.cc` here
  0x1c, 0x00, 0x00, 0x00, 0x54, 0x46, 0x4c, 0x33, 0x14, 0x00, 0x20, 0x00,
  0x04, 0x00, 0x08, 0x00, 0x0c, 0x00, 0x10, 0x00, 0x14, 0x00, 0x00, 0x00,
  0x18, 0x00, 0x1c, 0x00, 0x14, 0x00, 0x00, 0x00, 0x03, 0x00, 0x00, 0x00,
  0x18, 0x00, 0x00, 0x00, 0x2c, 0x00, 0x00, 0x00, 0xd8, 0x00, 0x00, 0x00,
  0x2c, 0x00, 0x00, 0x00, 0x80, 0x00, 0x00, 0x00, 0x78, 0x00, 0x00, 0x00,
  0x05, 0x00, 0x00, 0x00, 0x28, 0x07, 0x00, 0x00, 0x44, 0x06, 0x00, 0x00,
  0xbc, 0x03, 0x00, 0x00, 0xf8, 0x02, 0x00, 0x00, 0xac, 0x01, 0x00, 0x00,
  0x01, 0x00, 0x00, 0x00, 0xd0, 0x00, 0x00, 0x00, 0x14, 0x00, 0x00, 0x00,
  0x98, 0x32, 0x00, 0x00, 0x94, 0x32, 0x00, 0x00, 0x8c, 0x31, 0x00, 0x00,
  0xd8, 0x30, 0x00, 0x00, 0x30, 0x30, 0x00, 0x00, 0xbc, 0x2f, 0x00, 0x00,
  0x50, 0x2f, 0x00, 0x00, 0x00, 0x13, 0x00, 0x00, 0xec, 0x11, 0x00, 0x00,
  0x10, 0x10, 0x00, 0x00, 0xb4, 0x07, 0x00, 0x00, 0x6c, 0x32, 0x00, 0x00,
  0x68, 0x32, 0x00, 0x00, 0x64, 0x32, 0x00, 0x00, 0x60, 0x32, 0x00, 0x00,
  0x5c, 0x32, 0x00, 0x00, 0x58, 0x32, 0x00, 0x00, 0x54, 0x32, 0x00, 0x00,
  0x50, 0x32, 0x00, 0x00, 0x3c, 0x00, 0x00, 0x00, 0x00, 0x00, 0x00, 0x00,
  0x01, 0x00, 0x00, 0x00, 0x0c, 0x00, 0x00, 0x00, 0x08, 0x00, 0x0c, 0x00,
  0x04, 0x00, 0x08, 0x00, 0x08, 0x00, 0x00, 0x00, 0x08, 0x00, 0x00, 0x00,
  0x13, 0x00, 0x00, 0x00, 0x13, 0x00, 0x00, 0x00, 0x6d, 0x69, 0x6e, 0x5f,
  0x72, 0x75, 0x6e, 0x74, 0x69, 0x6d, 0x65, 0x5f, 0x76, 0x65, 0x72, 0x73,
  0x69, 0x6f, 0x6e, 0x00, 0xfa, 0xce, 0xff, 0xff, 0x04, 0x00, 0x00, 0x00,
  0x10, 0x00, 0x00, 0x00, 0x31, 0x2e, 0x35, 0x2e, 0x30, 0x00, 0x00, 0x00,
  0x00, 0x00, 0x00, 0x00, 0x00, 0x00, 0x00, 0x00, 0x0f, 0x00, 0x00, 0x00,
  0x4d, 0x4c, 0x49, 0x52, 0x20, 0x43, 0x6f, 0x6e, 0x76, 0x65, 0x72, 0x74,
  0x65, 0x64, 0x2e, 0x00, 0x00, 0x00, 0x0e, 0x00, 0x18, 0x00, 0x04, 0x00,
  0x08, 0x00, 0x0c, 0x00, 0x10, 0x00, 0x14, 0x00, 0x0e, 0x00, 0x00, 0x00,
  0x14, 0x00, 0x00, 0x00, 0x5c, 0x00, 0x00, 0x00, 0x60, 0x00, 0x00, 0x00,
  0x64, 0x00, 0x00, 0x00, 0x84, 0x00, 0x00, 0x00, 0x12, 0x00, 0x00, 0x00,
  0x58, 0x31, 0x00, 0x00, 0xe8, 0x30, 0x00, 0x00, 0x44, 0x30, 0x00, 0x00,
  0x9c, 0x2f, 0x00, 0x00, 0xf4, 0x2e, 0x00, 0x00, 0x94, 0x2e, 0x00, 0x00,
  0x2c, 0x2e, 0x00, 0x00, 0xd8, 0x11, 0x00, 0x00, 0xbc, 0x10, 0x00, 0x00,
  0xe0, 0x0e, 0x00, 0x00, 0x0c, 0x06, 0x00, 0x00, 0x28, 0x05, 0x00, 0x00,
  0xe8, 0x03, 0x00, 0x00, 0x3c, 0x03, 0x00, 0x00, 0x98, 0x02, 0x00, 0x00,
  0xd4, 0x01, 0x00, 0x00, 0x10, 0x01, 0x00, 0x00, 0x84, 0x00, 0x00, 0x00,
  0x01, 0x00, 0x00, 0x00, 0x00, 0x00, 0x00, 0x00, 0x01, 0x00, 0x00, 0x00,
  0x11, 0x00, 0x00, 0x00, 0x08, 0x00, 0x00, 0x00, 0x74, 0x05, 0x00, 0x00,
  0x94, 0x04, 0x00, 0x00, 0x78, 0x03, 0x00, 0x00, 0xbc, 0x02, 0x00, 0x00,
  0x30, 0x02, 0x00, 0x00, 0x50, 0x01, 0x00, 0x00, 0xa8, 0x00, 0x00, 0x00,
  0x10, 0x00, 0x00, 0x00, 0x04, 0x00, 0x00, 0x00, 0x6d, 0x61, 0x69, 0x6e,
  0x00, 0x00, 0x00, 0x00, 0x7a, 0xff, 0xff, 0xff, 0x00, 0x00, 0x00, 0x09,
  0x04, 0x00, 0x00, 0x00, 0x1c, 0x00, 0x00, 0x00, 0x10, 0x00, 0x00, 0x00,
  0x04, 0x00, 0x00, 0x00, 0xf6, 0xcf, 0xff, 0xff, 0x00, 0x00, 0x80, 0x3f,
  0x01, 0x00, 0x00, 0x00, 0x11, 0x00, 0x00, 0x00, 0x01, 0x00, 0x00, 0x00,
  0x10, 0x00, 0x00, 0x00, 0xa0, 0xfa, 0xff, 0xff, 0x19, 0x00, 0x00, 0x00,
  0x00, 0x00, 0x00, 0x19, 0x01, 0x00, 0x00, 0x00, 0x84, 0xcf, 0xff, 0xff,
  0x14, 0x00, 0x00, 0x00, 0x12, 0x00, 0x00, 0x00, 0x18, 0x00, 0x00, 0x00,
  0x30, 0x00, 0x00, 0x00, 0x20, 0x00, 0x00, 0x00, 0x02, 0x00, 0x00, 0x00,
  0x01, 0x00, 0x00, 0x00, 0x03, 0x00, 0x00, 0x00, 0x08, 0x00, 0x00, 0x00,
  0x49, 0x64, 0x65, 0x6e, 0x74, 0x69, 0x74, 0x79, 0x00, 0x00, 0x00, 0x00,
  0x02, 0x00, 0x00, 0x00, 0xff, 0xff, 0xff, 0xff, 0x03, 0x00, 0x00, 0x00,
  0x68, 0xd0, 0xff, 0xff, 0x00, 0x00, 0x0e, 0x00, 0x18, 0x00, 0x08, 0x00,
  0x0c, 0x00, 0x10, 0x00, 0x07, 0x00, 0x14, 0x00, 0x0e, 0x00, 0x00, 0x00,
  0x00, 0x00, 0x00, 0x08, 0x03, 0x00, 0x00, 0x00, 0x18, 0x00, 0x00, 0x00,
  0x0c, 0x00, 0x00, 0x00, 0x04, 0x00, 0x00, 0x00, 0x84, 0xcf, 0xff, 0xff,
  0x01, 0x00, 0x00, 0x00, 0x10, 0x00, 0x00, 0x00, 0x03, 0x00, 0x00, 0x00,
  0x0f, 0x00, 0x00, 0x00, 0x07, 0x00, 0x00, 0x00, 0x04, 0x00, 0x00, 0x00,
  0x0c, 0xd0, 0xff, 0xff, 0x14, 0x00, 0x00, 0x00, 0x11, 0x00, 0x00, 0x00,
  0x18, 0x00, 0x00, 0x00, 0x5c, 0x00, 0x00, 0x00, 0x4c, 0x00, 0x00, 0x00,
  0x02, 0x00, 0x00, 0x00, 0x01, 0x00, 0x00, 0x00, 0x03, 0x00, 0x00, 0x00,
  0x34, 0x00, 0x00, 0x00, 0x73, 0x65, 0x71, 0x75, 0x65, 0x6e, 0x74, 0x69,
  0x61, 0x6c, 0x2f, 0x64, 0x65, 0x6e, 0x73, 0x65, 0x5f, 0x31, 0x2f, 0x4d,
  0x61, 0x74, 0x4d, 0x75, 0x6c, 0x3b, 0x73, 0x65, 0x71, 0x75, 0x65, 0x6e,
  0x74, 0x69, 0x61, 0x6c, 0x2f, 0x64, 0x65, 0x6e, 0x73, 0x65, 0x5f, 0x31,
  0x2f, 0x42, 0x69, 0x61, 0x73, 0x41, 0x64, 0x64, 0x00, 0x00, 0x00, 0x00,
  0x02, 0x00, 0x00, 0x00, 0xff, 0xff, 0xff, 0xff, 0x03, 0x00, 0x00, 0x00,
  0x0c, 0xd0, 0xff, 0xff, 0xda, 0xfc, 0xff, 0xff, 0x00, 0x00, 0x00, 0x08,
  0x03, 0x00, 0x00, 0x00, 0x24, 0x00, 0x00, 0x00, 0x18, 0x00, 0x00, 0x00,
  0x0c, 0x00, 0x00, 0x00, 0x00, 0x00, 0x06, 0x00, 0x08, 0x00, 0x07, 0x00,
  0x06, 0x00, 0x00, 0x00, 0x00, 0x00, 0x00, 0x01, 0x01, 0x00, 0x00, 0x00,
  0x0f, 0x00, 0x00, 0x00, 0x03, 0x00, 0x00, 0x00, 0x0e, 0x00, 0x00, 0x00,
  0x06, 0x00, 0x00, 0x00, 0x03, 0x00, 0x00, 0x00, 0xe8, 0xfb, 0xff, 0xff,
  0x09, 0x00, 0x00, 0x00, 0x00, 0x00, 0x00, 0x09, 0x01, 0x00, 0x00, 0x00,
  0xcc, 0xd0, 0xff, 0xff, 0x14, 0x00, 0x00, 0x00, 0x10, 0x00, 0x00, 0x00,
  0x18, 0x00, 0x00, 0x00, 0x6c, 0x00, 0x00, 0x00, 0x5c, 0x00, 0x00, 0x00,
  0x02, 0x00, 0x00, 0x00, 0x01, 0x00, 0x00, 0x00, 0x10, 0x00, 0x00, 0x00,
  0x46, 0x00, 0x00, 0x00, 0x73, 0x65, 0x71, 0x75, 0x65, 0x6e, 0x74, 0x69,
  0x61, 0x6c, 0x2f, 0x64, 0x65, 0x6e, 0x73, 0x65, 0x2f, 0x4d, 0x61, 0x74,
  0x4d, 0x75, 0x6c, 0x3b, 0x73, 0x65, 0x71, 0x75, 0x65, 0x6e, 0x74, 0x69,
  0x61, 0x6c, 0x2f, 0x64, 0x65, 0x6e, 0x73, 0x65, 0x2f, 0x52, 0x65, 0x6c,
  0x75, 0x3b, 0x73, 0x65, 0x71, 0x75, 0x65, 0x6e, 0x74, 0x69, 0x61, 0x6c,
  0x2f, 0x64, 0x65, 0x6e, 0x73, 0x65, 0x2f, 0x42, 0x69, 0x61, 0x73, 0x41,
  0x64, 0x64, 0x00, 0x00, 0x02, 0x00, 0x00, 0x00, 0xff, 0xff, 0xff, 0xff,
  0x10, 0x00, 0x00, 0x00, 0xec, 0xd1, 0xff, 0xff, 0x00, 0x00, 0x0a, 0x00,
  0x10, 0x00, 0x04, 0x00, 0x08, 0x00, 0x0c, 0x00, 0x0a, 0x00, 0x00, 0x00,
  0x02, 0x00, 0x00, 0x00, 0x10, 0x00, 0x00, 0x00, 0x04, 0x00, 0x00, 0x00,
  0x01, 0x00, 0x00, 0x00, 0x0e, 0x00, 0x00, 0x00, 0x02, 0x00, 0x00, 0x00,
  0x0d, 0x00, 0x00, 0x00, 0x05, 0x00, 0x00, 0x00, 0xa8, 0xfc, 0xff, 0xff,
  0x16, 0x00, 0x00, 0x00, 0x00, 0x00, 0x00, 0x16, 0x01, 0x00, 0x00, 0x00,
  0x8c, 0xd1, 0xff, 0xff, 0x14, 0x00, 0x00, 0x00, 0x0f, 0x00, 0x00, 0x00,
  0x18, 0x00, 0x00, 0x00, 0x40, 0x00, 0x00, 0x00, 0x30, 0x00, 0x00, 0x00,
  0x02, 0x00, 0x00, 0x00, 0x01, 0x00, 0x00, 0x00, 0x70, 0x00, 0x00, 0x00,
  0x1a, 0x00, 0x00, 0x00, 0x73, 0x65, 0x71, 0x75, 0x65, 0x6e, 0x74, 0x69,
  0x61, 0x6c, 0x2f, 0x66, 0x6c, 0x61, 0x74, 0x74, 0x65, 0x6e, 0x2f, 0x52,
  0x65, 0x73, 0x68, 0x61, 0x70, 0x65, 0x00, 0x00, 0x02, 0x00, 0x00, 0x00,
  0xff, 0xff, 0xff, 0xff, 0x70, 0x00, 0x00, 0x00, 0x70, 0xd1, 0xff, 0xff,
  0x3e, 0xfe, 0xff, 0xff, 0x00, 0x00, 0x00, 0x05, 0x01, 0x00, 0x00, 0x00,
  0x38, 0x00, 0x00, 0x00, 0x2c, 0x00, 0x00, 0x00, 0x14, 0x00, 0x00, 0x00,
  0x00, 0x00, 0x0e, 0x00, 0x14, 0x00, 0x00, 0x00, 0x10, 0x00, 0x0c, 0x00,
  0x08, 0x00, 0x04, 0x00, 0x0e, 0x00, 0x00, 0x00, 0x03, 0x00, 0x00, 0x00,
  0x01, 0x00, 0x00, 0x00, 0x03, 0x00, 0x00, 0x00, 0x01, 0x00, 0x00, 0x00,
  0x01, 0x00, 0x00, 0x00, 0x0d, 0x00, 0x00, 0x00, 0x01, 0x00, 0x00, 0x00,
  0x0c, 0x00, 0x00, 0x00, 0x2c, 0xd2, 0xff, 0xff, 0x14, 0x00, 0x00, 0x00,
  0x0e, 0x00, 0x00, 0x00, 0x20, 0x00, 0x00, 0x00, 0x58, 0x00, 0x00, 0x00,
  0x40, 0x00, 0x00, 0x00, 0x04, 0x00, 0x00, 0x00, 0x01, 0x00, 0x00, 0x00,
  0x07, 0x00, 0x00, 0x00, 0x01, 0x00, 0x00, 0x00, 0x10, 0x00, 0x00, 0x00,
  0x22, 0x00, 0x00, 0x00, 0x73, 0x65, 0x71, 0x75, 0x65, 0x6e, 0x74, 0x69,
  0x61, 0x6c, 0x2f, 0x6d, 0x61, 0x78, 0x5f, 0x70, 0x6f, 0x6f, 0x6c, 0x69,
  0x6e, 0x67, 0x32, 0x64, 0x5f, 0x31, 0x2f, 0x4d, 0x61, 0x78, 0x50, 0x6f,
  0x6f, 0x6c, 0x00, 0x00, 0x04, 0x00, 0x00, 0x00, 0xff, 0xff, 0xff, 0xff,
  0x07, 0x00, 0x00, 0x00, 0x01, 0x00, 0x00, 0x00, 0x10, 0x00, 0x00, 0x00,
  0x28, 0xd2, 0xff, 0xff, 0x1a, 0xfe, 0xff, 0xff, 0x00, 0x00, 0x00, 0x01,
  0x24, 0x00, 0x00, 0x00, 0x18, 0x00, 0x00, 0x00, 0x04, 0x00, 0x00, 0x00,
  0x0c, 0xfe, 0xff, 0xff, 0x01, 0x00, 0x00, 0x00, 0x01, 0x00, 0x00, 0x00,
  0x00, 0x00, 0x00, 0x01, 0x01, 0x00, 0x00, 0x00, 0x0c, 0x00, 0x00, 0x00,
  0x03, 0x00, 0x00, 0x00, 0x0b, 0x00, 0x00, 0x00, 0x09, 0x00, 0x00, 0x00,
  0x02, 0x00, 0x00, 0x00, 0xd4, 0xd2, 0xff, 0xff, 0x14, 0x00, 0x00, 0x00,
  0x0d, 0x00, 0x00, 0x00, 0x20, 0x00, 0x00, 0x00, 0xb8, 0x00, 0x00, 0x00,
  0xa0, 0x00, 0x00, 0x00, 0x04, 0x00, 0x00, 0x00, 0x01, 0x00, 0x00, 0x00,
  0x15, 0x00, 0x00, 0x00, 0x01, 0x00, 0x00, 0x00, 0x10, 0x00, 0x00, 0x00,
  0x83, 0x00, 0x00, 0x00, 0x73, 0x65, 0x71, 0x75, 0x65, 0x6e, 0x74, 0x69,
  0x61, 0x6c, 0x2f, 0x63, 0x6f, 0x6e, 0x76, 0x32, 0x64, 0x5f, 0x31, 0x2f,
  0x52, 0x65, 0x6c, 0x75, 0x3b, 0x73, 0x65, 0x71, 0x75, 0x65, 0x6e, 0x74,
  0x69, 0x61, 0x6c, 0x2f, 0x63, 0x6f, 0x6e, 0x76, 0x32, 0x64, 0x5f, 0x31,
  0x2f, 0x42, 0x69, 0x61, 0x73, 0x41, 0x64, 0x64, 0x3b, 0x73, 0x65, 0x71,
  0x75, 0x65, 0x6e, 0x74, 0x69, 0x61, 0x6c, 0x2f, 0x63, 0x6f, 0x6e, 0x76,
  0x32, 0x64, 0x5f, 0x31, 0x2f, 0x43, 0x6f, 0x6e, 0x76, 0x32, 0x44, 0x3b,
  0x73, 0x65, 0x71, 0x75, 0x65, 0x6e, 0x74, 0x69, 0x61, 0x6c, 0x2f, 0x63,
  0x6f, 0x6e, 0x76, 0x32, 0x64, 0x5f, 0x31, 0x2f, 0x42, 0x69, 0x61, 0x73,
  0x41, 0x64, 0x64, 0x2f, 0x52, 0x65, 0x61, 0x64, 0x56, 0x61, 0x72, 0x69,
  0x61, 0x62, 0x6c, 0x65, 0x4f, 0x70, 0x2f, 0x72, 0x65, 0x73, 0x6f, 0x75,
  0x72, 0x63, 0x65, 0x00, 0x04, 0x00, 0x00, 0x00, 0xff, 0xff, 0xff, 0xff,
  0x15, 0x00, 0x00, 0x00, 0x01, 0x00, 0x00, 0x00, 0x10, 0x00, 0x00, 0x00,
  0x40, 0xd4, 0xff, 0xff, 0x00, 0x00, 0x0e, 0x00, 0x1a, 0x00, 0x08, 0x00,
  0x0c, 0x00, 0x10, 0x00, 0x07, 0x00, 0x14, 0x00, 0x0e, 0x00, 0x00, 0x00,
  0x00, 0x00, 0x00, 0x05, 0x01, 0x00, 0x00, 0x00, 0x3c, 0x00, 0x00, 0x00,
  0x30, 0x00, 0x00, 0x00, 0x14, 0x00, 0x00, 0x00, 0x00, 0x00, 0x0e, 0x00,
  0x18, 0x00, 0x17, 0x00, 0x10, 0x00, 0x0c, 0x00, 0x08, 0x00, 0x04, 0x00,
  0x0e, 0x00, 0x00, 0x00, 0x03, 0x00, 0x00, 0x00, 0x03, 0x00, 0x00, 0x00,
  0x03, 0x00, 0x00, 0x00, 0x03, 0x00, 0x00, 0x00, 0x00, 0x00, 0x00, 0x01,
  0x01, 0x00, 0x00, 0x00, 0x0b, 0x00, 0x00, 0x00, 0x01, 0x00, 0x00, 0x00,
  0x0a, 0x00, 0x00, 0x00, 0x2c, 0xff, 0xff, 0xff, 0x11, 0x00, 0x00, 0x00,
  0x00, 0x00, 0x00, 0x11, 0x01, 0x00, 0x00, 0x00, 0x10, 0xd4, 0xff, 0xff,
  0x14, 0x00, 0x00, 0x00, 0x0c, 0x00, 0x00, 0x00, 0x20, 0x00, 0x00, 0x00,
  0x58, 0x00, 0x00, 0x00, 0x40, 0x00, 0x00, 0x00, 0x04, 0x00, 0x00, 0x00,
  0x01, 0x00, 0x00, 0x00, 0x15, 0x00, 0x00, 0x00, 0x01, 0x00, 0x00, 0x00,
  0x08, 0x00, 0x00, 0x00, 0x20, 0x00, 0x00, 0x00, 0x73, 0x65, 0x71, 0x75,
  0x65, 0x6e, 0x74, 0x69, 0x61, 0x6c, 0x2f, 0x6d, 0x61, 0x78, 0x5f, 0x70,
  0x6f, 0x6f, 0x6c, 0x69, 0x6e, 0x67, 0x32, 0x64, 0x2f, 0x4d, 0x61, 0x78,
  0x50, 0x6f, 0x6f, 0x6c, 0x00, 0x00, 0x00, 0x00, 0x04, 0x00, 0x00, 0x00,
  0xff, 0xff, 0xff, 0xff, 0x15, 0x00, 0x00, 0x00, 0x01, 0x00, 0x00, 0x00,
  0x08, 0x00, 0x00, 0x00, 0x1c, 0xd5, 0xff, 0xff, 0x00, 0x00, 0x0e, 0x00,
  0x14, 0x00, 0x00, 0x00, 0x08, 0x00, 0x0c, 0x00, 0x07, 0x00, 0x10, 0x00,
  0x0e, 0x00, 0x00, 0x00, 0x00, 0x00, 0x00, 0x01, 0x30, 0x00, 0x00, 0x00,
  0x24, 0x00, 0x00, 0x00, 0x10, 0x00, 0x00, 0x00, 0x0c, 0x00, 0x10, 0x00,
  0x00, 0x00, 0x04, 0x00, 0x08, 0x00, 0x0f, 0x00, 0x0c, 0x00, 0x00, 0x00,
  0x01, 0x00, 0x00, 0x00, 0x01, 0x00, 0x00, 0x00, 0x00, 0x00, 0x00, 0x01,
  0x01, 0x00, 0x00, 0x00, 0x0a, 0x00, 0x00, 0x00, 0x03, 0x00, 0x00, 0x00,
  0x00, 0x00, 0x00, 0x00, 0x08, 0x00, 0x00, 0x00, 0x01, 0x00, 0x00, 0x00,
  0x0c, 0x00, 0x10, 0x00, 0x0b, 0x00, 0x00, 0x00, 0x0c, 0x00, 0x04, 0x00,
  0x0c, 0x00, 0x00, 0x00, 0x03, 0x00, 0x00, 0x00, 0x00, 0x00, 0x00, 0x03,
  0x01, 0x00, 0x00, 0x00, 0xf0, 0xd4, 0xff, 0xff, 0x14, 0x00, 0x00, 0x00,
  0x0b, 0x00, 0x00, 0x00, 0x20, 0x00, 0x00, 0x00, 0xb0, 0x00, 0x00, 0x00,
  0x98, 0x00, 0x00, 0x00, 0x04, 0x00, 0x00, 0x00, 0x01, 0x00, 0x00, 0x00,
  0x40, 0x00, 0x00, 0x00, 0x03, 0x00, 0x00, 0x00, 0x08, 0x00, 0x00, 0x00,
  0x7b, 0x00, 0x00, 0x00, 0x73, 0x65, 0x71, 0x75, 0x65, 0x6e, 0x74, 0x69,
  0x61, 0x6c, 0x2f, 0x63, 0x6f, 0x6e, 0x76, 0x32, 0x64, 0x2f, 0x52, 0x65,
  0x6c, 0x75, 0x3b, 0x73, 0x65, 0x71, 0x75, 0x65, 0x6e, 0x74, 0x69, 0x61,
  0x6c, 0x2f, 0x63, 0x6f, 0x6e, 0x76, 0x32, 0x64, 0x2f, 0x42, 0x69, 0x61,
  0x73, 0x41, 0x64, 0x64, 0x3b, 0x73, 0x65, 0x71, 0x75, 0x65, 0x6e, 0x74,
  0x69, 0x61, 0x6c, 0x2f, 0x63, 0x6f, 0x6e, 0x76, 0x32, 0x64, 0x2f, 0x43,
  0x6f, 0x6e, 0x76, 0x32, 0x44, 0x3b, 0x73, 0x65, 0x71, 0x75, 0x65, 0x6e,
  0x74, 0x69, 0x61, 0x6c, 0x2f, 0x63, 0x6f, 0x6e, 0x76, 0x32, 0x64, 0x2f,
  0x42, 0x69, 0x61, 0x73, 0x41, 0x64, 0x64, 0x2f, 0x52, 0x65, 0x61, 0x64,
  0x56, 0x61, 0x72, 0x69, 0x61, 0x62, 0x6c, 0x65, 0x4f, 0x70, 0x2f, 0x72,
  0x65, 0x73, 0x6f, 0x75, 0x72, 0x63, 0x65, 0x00, 0x04, 0x00, 0x00, 0x00,
  0xff, 0xff, 0xff, 0xff, 0x40, 0x00, 0x00, 0x00, 0x03, 0x00, 0x00, 0x00,
  0x08, 0x00, 0x00, 0x00, 0x44, 0xd5, 0xff, 0xff, 0x4e, 0xd6, 0xff, 0xff,
  0x04, 0x00, 0x00, 0x00, 0x00, 0x08, 0x00, 0x00, 0x51, 0xc3, 0x7b, 0x3b,
  0x52, 0x83, 0xf7, 0xbd, 0x1a, 0x1d, 0x2a, 0xbe, 0xe8, 0xdf, 0x45, 0x3d,
  0xea, 0xb5, 0x38, 0x3e, 0x9e, 0x60, 0x9e, 0x3c, 0x42, 0xc5, 0x6b, 0xbe,
  0x45, 0xea, 0x5c, 0xbe, 0x5f, 0xb4, 0x42, 0x3e, 0x7b, 0xd5, 0x10, 0x3e,
  0xd1, 0x0a, 0x1a, 0xbe, 0xc3, 0x4e, 0x81, 0xbe, 0xe2, 0x3e, 0x85, 0xbe,
  0x33, 0x2f, 0xa3, 0xbd, 0x5a, 0x61, 0x76, 0x3d, 0x00, 0x1b, 0x8a, 0xbe,
  0x8c, 0xcf, 0xc4, 0x3d, 0x60, 0x40, 0xd5, 0x3c, 0x69, 0x4b, 0x0c, 0xbe,
  0x65, 0x0a, 0xce, 0xbd, 0xda, 0xbc, 0x6e, 0xbe, 0x88, 0x69, 0xa1, 0x3c,
  0xe1, 0x2e, 0xe9, 0xbd, 0x34, 0x33, 0xf4, 0x3d, 0x9a, 0x23, 0x07, 0x3e,
  0xcd, 0x00, 0x3a, 0x3e, 0x3d, 0x2f, 0x21, 0xbe, 0x8c, 0xec, 0xeb, 0x3d,
  0x45, 0xbb, 0x1d, 0xbe, 0x33, 0xe3, 0x65, 0xbd, 0xe2, 0x3c, 0xa2, 0x3c,
  0xf7, 0x5f, 0x30, 0xbe, 0x64, 0x42, 0x86, 0x3e, 0x1b, 0x76, 0xc9, 0x3d,
  0xe7, 0xe1, 0x6f, 0x3e, 0x56, 0x70, 0xbc, 0x3d, 0xe6, 0xc0, 0x1b, 0xbe,
  0xa2, 0x99, 0xe0, 0x3c, 0x67, 0x1e, 0x40, 0x3e, 0x21, 0x55, 0xab, 0x3d,
  0x94, 0x07, 0xf8, 0xbd, 0x2b, 0xf2, 0x4e, 0xbc, 0x51, 0x42, 0x5d, 0x3e,
  0xa8, 0xe6, 0x79, 0x3d, 0x69, 0xe7, 0xc4, 0xbb, 0x52, 0xce, 0x74, 0x3e,
  0x45, 0x29, 0xaf, 0xbd, 0x8e, 0x05, 0xdf, 0xbd, 0xfe, 0x8d, 0x0f, 0x3d,
  0xcf, 0xca, 0x98, 0xbd, 0xf4, 0x73, 0x08, 0xbe, 0x48, 0x54, 0x31, 0x3e,
  0xb9, 0xba, 0x81, 0x3e, 0x58, 0x4a, 0x40, 0xbd, 0x70, 0x24, 0x2c, 0x3c,
  0x12, 0x8b, 0xc5, 0x3d, 0x65, 0x2b, 0x20, 0xbe, 0x9b, 0x27, 0x94, 0xbc,
  0x0d, 0xce, 0xa1, 0xbd, 0xc3, 0x3b, 0x08, 0x3e, 0x2e, 0xd6, 0x0a, 0xbe,
  0x86, 0xd3, 0xa0, 0x3e, 0x50, 0xdb, 0xd4, 0xbc, 0x03, 0x87, 0xf6, 0x3d,
  0x89, 0xde, 0x76, 0x3b, 0xb7, 0xa6, 0x5f, 0x3e, 0x9a, 0x09, 0x1a, 0x3e,
  0xe2, 0xc1, 0xde, 0xbb, 0xb1, 0xd6, 0x17, 0x3d, 0x7b, 0x44, 0x26, 0xbe,
  0x29, 0x37, 0x4d, 0xbe, 0x42, 0xc9, 0x8e, 0xbc, 0x7e, 0x00, 0x9f, 0xbd,
  0xc7, 0x69, 0x97, 0x3d, 0x10, 0xcf, 0x01, 0xbe, 0xba, 0xa4, 0xc6, 0x3d,
  0x9a, 0x99, 0x49, 0x3e, 0x4d, 0x50, 0x61, 0x3e, 0xf3, 0x75, 0x3b, 0xbe,
  0x84, 0x3a, 0x50, 0x3e, 0x99, 0x7c, 0xa4, 0x3c, 0x62, 0x47, 0xdd, 0x3d,
  0x72, 0xcf, 0xb9, 0x3d, 0xc6, 0x24, 0xb7, 0xba, 0x88, 0x08, 0x26, 0x3e,
  0x12, 0x6d, 0x8c, 0xbd, 0xb0, 0x66, 0xb6, 0xbd, 0x3f, 0xc1, 0x46, 0xbe,
  0xbf, 0x64, 0x6d, 0x3e, 0xd4, 0xe3, 0x09, 0x3e, 0xf7, 0x94, 0x21, 0x3e,
  0xde, 0x00, 0xe5, 0xbc, 0x05, 0xa6, 0x89, 0x3e, 0xa0, 0xc4, 0xc9, 0xbd,
  0x13, 0x35, 0x62, 0xbc, 0x04, 0x07, 0x81, 0x3e, 0x36, 0xb3, 0xc7, 0x3d,
  0xb6, 0x62, 0xf8, 0xbd, 0xbb, 0x8a, 0x26, 0xbe, 0x48, 0xb6, 0x1b, 0xbe,
  0xce, 0x3e, 0x5c, 0x3e, 0xd3, 0x61, 0x98, 0x3d, 0x67, 0xef, 0x1c, 0xbd,
  0xe0, 0xd6, 0x0f, 0xbd, 0x8f, 0x56, 0x6b, 0x3d, 0x6e, 0x55, 0x49, 0x3e,
  0x5c, 0xbe, 0x1c, 0x3d, 0x28, 0xcb, 0xb2, 0xbd, 0x0b, 0xee, 0x43, 0x3e,
  0x04, 0x11, 0x7a, 0x3e, 0xc0, 0x2d, 0x29, 0xbd, 0x1c, 0xd5, 0x04, 0xbd,
  0x97, 0xa6, 0x62, 0x3e, 0x8f, 0xd8, 0x2a, 0x3d, 0x6c, 0x45, 0x2f, 0x3e,
  0x14, 0xd5, 0x17, 0x3e, 0xad, 0x54, 0x3f, 0x3e, 0x04, 0xd9, 0x0c, 0x3e,
  0x38, 0xe4, 0x28, 0x3d, 0x28, 0xb1, 0xdc, 0x3d, 0xcf, 0x82, 0x4c, 0xbd,
  0xef, 0xf7, 0xe9, 0x3d, 0xd8, 0x42, 0x4f, 0xbd, 0x64, 0xd4, 0x0b, 0x3d,
  0x9a, 0x92, 0x45, 0x3e, 0xee, 0xa8, 0x20, 0xbe, 0xa2, 0x68, 0xaa, 0xbd,
  0x71, 0xce, 0x16, 0xbd, 0x7f, 0xdf, 0x85, 0xbe, 0xf1, 0x49, 0x98, 0x3d,
  0x82, 0x41, 0x4c, 0xbe, 0x9e, 0xd6, 0x29, 0xbe, 0xb3, 0x3b, 0x4d, 0x3e,
  0xa4, 0x89, 0x16, 0xbe, 0xbf, 0x27, 0x69, 0xbe, 0x52, 0xbd, 0x10, 0x3e,
  0x0b, 0x3b, 0x20, 0xbe, 0x55, 0xc5, 0x8c, 0x3c, 0x33, 0xc7, 0xc3, 0x3d,
  0xf1, 0xd2, 0x34, 0x3e, 0x32, 0x68, 0x52, 0xbe, 0x3c, 0x09, 0x0e, 0x3e,
  0xf0, 0xf9, 0x09, 0xbe, 0xaa, 0x57, 0xe4, 0x3d, 0x6b, 0x27, 0x86, 0xbe,
  0x7f, 0x07, 0xb3, 0xbd, 0x54, 0xbf, 0x7b, 0x3d, 0x92, 0x04, 0x85, 0xbe,
  0xec, 0x15, 0x4c, 0xbe, 0x1f, 0x8c, 0x3e, 0x3e, 0x6d, 0xba, 0x27, 0x3e,
  0xe4, 0x4d, 0x17, 0x3d, 0xfd, 0x8c, 0x2a, 0x3e, 0x99, 0x0b, 0x26, 0x3e,
  0x44, 0x26, 0x4f, 0x3e, 0xbf, 0xe3, 0x09, 0xbe, 0x63, 0x13, 0x34, 0xbe,
  0x1a, 0xd2, 0xc7, 0x3d, 0xf5, 0x77, 0x87, 0xbd, 0xa9, 0x74, 0x8f, 0x3d,
  0x9f, 0x73, 0x67, 0x3e, 0x80, 0x61, 0x6c, 0xbe, 0x95, 0xbc, 0x46, 0xbe,
  0xb7, 0xa3, 0xb5, 0xbd, 0x54, 0x61, 0xdf, 0xbc, 0xe9, 0x27, 0x0f, 0xbe,
  0x28, 0xe7, 0x4f, 0xbd, 0x23, 0x5c, 0xcc, 0x3d, 0x1e, 0xdc, 0x80, 0xbd,
  0x1f, 0xe5, 0x9f, 0xbd, 0x61, 0xce, 0x66, 0xbe, 0x2b, 0x2e, 0xb1, 0xbd,
  0x5c, 0x20, 0x2a, 0xbe, 0x79, 0x66, 0x0e, 0x3e, 0xc0, 0x1d, 0xe4, 0xbd,
  0xd4, 0x12, 0x22, 0x3d, 0x8a, 0x4b, 0xd7, 0xbd, 0xe6, 0xb2, 0x25, 0x3e,
  0x3e, 0x74, 0xd1, 0x3d, 0x1a, 0x0f, 0x35, 0x3e, 0xa4, 0x5e, 0xd4, 0xbd,
  0xe6, 0xe4, 0x28, 0x3e, 0x88, 0x01, 0x40, 0x3e, 0x13, 0x18, 0xe1, 0xbd,
  0xa2, 0xda, 0x80, 0xbe, 0xe8, 0x21, 0x31, 0x3e, 0x54, 0x6b, 0xcb, 0x3d,
  0x78, 0x40, 0x86, 0xbe, 0x98, 0xc7, 0x86, 0xbe, 0xe8, 0xc3, 0xc1, 0xbb,
  0xbf, 0xb6, 0xed, 0x3c, 0x75, 0x0d, 0xa9, 0x3d, 0xf9, 0xba, 0xd2, 0x3d,
  0xc2, 0x6c, 0x0b, 0x3e, 0xc0, 0x97, 0xae, 0x3d, 0x70, 0x01, 0xf5, 0x3d,
  0x93, 0x32, 0x9f, 0x3d, 0x5b, 0xe0, 0x48, 0xbd, 0x33, 0x2a, 0x2f, 0x3d,
  0x72, 0x78, 0xde, 0x3d, 0x4b, 0xc5, 0x43, 0xbe, 0x21, 0x52, 0xa1, 0xbd,
  0xc0, 0x6d, 0x06, 0x3e, 0x6f, 0xd9, 0xce, 0x3d, 0x7c, 0x15, 0x8f, 0xbd,
  0x68, 0x57, 0xd3, 0x3d, 0x23, 0xfb, 0x37, 0xba, 0x5d, 0x30, 0x48, 0x3e,
  0xf8, 0xb0, 0x39, 0x3e, 0x1f, 0x87, 0xae, 0xba, 0x11, 0xfe, 0x7c, 0xbe,
  0xbd, 0x39, 0x58, 0x3e, 0x0e, 0x10, 0x17, 0x3e, 0x39, 0x9a, 0x7e, 0xbe,
  0x36, 0xf8, 0x31, 0xbe, 0x5b, 0x93, 0xac, 0x3c, 0x27, 0x4d, 0x5c, 0xbe,
  0xa3, 0x8d, 0x39, 0x3e, 0x9c, 0x0b, 0xa5, 0xbc, 0x19, 0xcc, 0x85, 0xbe,
  0xae, 0x0d, 0x38, 0xbe, 0x3b, 0xd8, 0x6f, 0xbe, 0x69, 0x9b, 0x47, 0x3e,
  0x06, 0x50, 0x40, 0x3d, 0xc3, 0xef, 0x7f, 0xbe, 0x39, 0x9e, 0x81, 0xbe,
  0x51, 0xa2, 0xe2, 0xbd, 0x44, 0x4a, 0x64, 0xbe, 0x08, 0x21, 0x58, 0x3e,
  0xc2, 0x65, 0x6d, 0xbd, 0x79, 0x41, 0x1b, 0xbc, 0x33, 0xda, 0x3c, 0xbe,
  0xa5, 0x85, 0xe1, 0xbb, 0x39, 0x0b, 0x0e, 0x3d, 0x95, 0x12, 0x01, 0xbe,
  0xe7, 0xfa, 0x52, 0x3e, 0x67, 0x56, 0x2c, 0x3d, 0x74, 0xe2, 0x1f, 0xbe,
  0xb7, 0x6f, 0x54, 0x3d, 0x8c, 0x1b, 0xe5, 0x3d, 0xd4, 0xfc, 0x5b, 0xbe,
  0x74, 0x55, 0x6d, 0x3e, 0xa5, 0x9d, 0x41, 0xbe, 0xd4, 0x2f, 0x1d, 0xbd,
  0x01, 0xc8, 0xe9, 0xbd, 0x07, 0x9b, 0x3d, 0x3e, 0x22, 0x69, 0x39, 0xbe,
  0x09, 0x92, 0xfe, 0xba, 0x14, 0xf3, 0xb4, 0x3d, 0xcb, 0xcc, 0x62, 0xbe,
  0x1c, 0xbc, 0x15, 0xbd, 0xb7, 0xb8, 0xa9, 0x3d, 0x39, 0x0b, 0xda, 0xbd,
  0x91, 0xc6, 0x7d, 0x3e, 0x7e, 0x43, 0x62, 0xbe, 0x05, 0x01, 0x39, 0x3e,
  0x59, 0xe7, 0xc8, 0x3d, 0x43, 0x6f, 0x38, 0xbe, 0xcf, 0x1a, 0x91, 0x3d,
  0x2a, 0x32, 0x93, 0x3c, 0x6f, 0x2b, 0x58, 0x3e, 0x24, 0x94, 0x11, 0xbe,
  0x1f, 0xd7, 0xf0, 0xbd, 0x2b, 0x8f, 0x00, 0x3e, 0x50, 0x00, 0xf5, 0x3d,
  0x49, 0x95, 0x0f, 0xbe, 0xb0, 0xae, 0x13, 0x3e, 0x20, 0xf8, 0x58, 0x3e,
  0x79, 0x14, 0xd9, 0xbd, 0xfc, 0x05, 0xcc, 0x3d, 0x8b, 0xb6, 0x94, 0xbd,
  0xc1, 0xd7, 0x07, 0x3e, 0x7b, 0xc7, 0x8d, 0x3c, 0xab, 0xa8, 0xb4, 0x3d,
  0x6d, 0x2f, 0xda, 0xbd, 0x2a, 0xd4, 0xb8, 0xbd, 0xa5, 0x27, 0x1c, 0x3e,
  0xfc, 0x1a, 0xee, 0x3d, 0x90, 0x86, 0x6d, 0x3e, 0xe4, 0x15, 0xc1, 0xbd,
  0xf4, 0xd8, 0x53, 0xbe, 0xa8, 0xde, 0xfc, 0x3d, 0xdb, 0xc6, 0xb1, 0xbd,
  0x60, 0xdb, 0xfd, 0xbc, 0x5e, 0xd7, 0x46, 0x3e, 0x2d, 0xd3, 0x9d, 0xbc,
  0x02, 0x4e, 0x32, 0x3e, 0x83, 0x8a, 0x23, 0x3e, 0xfa, 0x11, 0xb9, 0xbd,
  0x81, 0xc4, 0x8a, 0x3d, 0x6b, 0xec, 0x44, 0xbd, 0x28, 0x6f, 0x58, 0xbe,
  0xe3, 0x86, 0x1a, 0xbe, 0xf9, 0xdf, 0x34, 0x3e, 0x3e, 0x5b, 0xc2, 0x3c,
  0x43, 0xf5, 0x8b, 0xbd, 0x20, 0xcc, 0x2f, 0x3d, 0x82, 0x12, 0xb2, 0xbd,
  0x21, 0xac, 0x82, 0x3d, 0xc6, 0x35, 0xed, 0x3d, 0x76, 0x75, 0x0a, 0x3e,
  0x7d, 0x4e, 0x2b, 0x3d, 0x9a, 0x62, 0x0a, 0xbe, 0xae, 0x77, 0x80, 0x3e,
  0x59, 0x01, 0x50, 0xbe, 0x1c, 0xe8, 0x47, 0x3e, 0x7f, 0x70, 0x8a, 0x3c,
  0xeb, 0x35, 0x58, 0x3e, 0xd9, 0xe2, 0x83, 0x3e, 0x7d, 0x93, 0xa5, 0xbb,
  0x98, 0x28, 0xbf, 0x3a, 0xaf, 0xde, 0x88, 0xbd, 0x84, 0x84, 0xef, 0x3b,
  0x3e, 0x67, 0xdf, 0xbd, 0x73, 0xd2, 0xdd, 0xbd, 0x5d, 0xe1, 0x44, 0x3c,
  0x8e, 0x6c, 0x76, 0x3e, 0x74, 0x4b, 0x03, 0xbe, 0x37, 0xb3, 0xca, 0x3d,
  0x57, 0xa9, 0x45, 0x3e, 0x2a, 0xea, 0xd6, 0xbc, 0x47, 0x33, 0x15, 0xbd,
  0x3a, 0x0b, 0x02, 0x3e, 0x6e, 0x36, 0x16, 0x3e, 0x62, 0x82, 0x76, 0xbe,
  0x62, 0x55, 0x66, 0xbe, 0xfb, 0x07, 0x25, 0xbc, 0x4c, 0x99, 0x1f, 0xbe,
  0x4f, 0x0d, 0x48, 0xbe, 0x29, 0xe3, 0x1c, 0xbe, 0x11, 0xf3, 0x78, 0xbe,
  0xfd, 0x82, 0x40, 0x3e, 0x86, 0x55, 0x43, 0x3e, 0xb0, 0x79, 0xbb, 0x3b,
  0x3f, 0xac, 0x1d, 0x3e, 0xa4, 0x61, 0xc2, 0xbd, 0xa2, 0x4e, 0xaf, 0xbc,
  0xa2, 0xfa, 0x84, 0xbe, 0x3c, 0x0a, 0x69, 0x3b, 0xa5, 0x70, 0xc6, 0x3d,
  0x9c, 0xd8, 0x28, 0x3d, 0x9b, 0x65, 0x39, 0x3e, 0xbe, 0xb0, 0xc0, 0x3d,
  0xba, 0x27, 0x4f, 0xbe, 0xe5, 0xa4, 0x41, 0xbe, 0xbc, 0x41, 0x8c, 0xbd,
  0xdb, 0x07, 0x54, 0xbe, 0x08, 0xeb, 0x5b, 0x3e, 0xe0, 0x9d, 0x21, 0x3e,
  0x03, 0x30, 0x40, 0xbe, 0x5d, 0xb1, 0x41, 0x3e, 0x85, 0x6a, 0x7a, 0xbd,
  0xdc, 0x22, 0xe7, 0x3d, 0x5d, 0x31, 0x29, 0xbd, 0x89, 0xd6, 0xb5, 0xbb,
  0xd8, 0x1e, 0x44, 0xbc, 0x36, 0x17, 0x3d, 0xbe, 0x0a, 0x85, 0xc0, 0x3d,
  0x79, 0x2f, 0x2c, 0xbd, 0x34, 0x73, 0x11, 0xbe, 0x4f, 0x8e, 0x25, 0x3e,
  0x26, 0xbe, 0x9a, 0x3c, 0xd7, 0xab, 0x90, 0x3d, 0xed, 0x98, 0x23, 0x3c,
  0x85, 0xad, 0x0a, 0x3e, 0xde, 0xef, 0xa7, 0xbd, 0x2c, 0x3f, 0x41, 0x3e,
  0x73, 0x63, 0x1e, 0x3e, 0x6b, 0xab, 0x40, 0xbe, 0x63, 0x09, 0x16, 0xbd,
  0xca, 0x51, 0x92, 0x3d, 0x11, 0x89, 0x0d, 0xbe, 0x3d, 0xfc, 0x9f, 0xbc,
  0x9d, 0x24, 0x30, 0xbe, 0xae, 0x3a, 0xdd, 0xbd, 0x9a, 0xa0, 0xa8, 0x3d,
  0x60, 0xe2, 0x87, 0xbd, 0x50, 0x4a, 0xec, 0xbd, 0xfa, 0xb9, 0x93, 0x3d,
  0x85, 0x38, 0x4d, 0x3e, 0x0a, 0xa0, 0x98, 0xbd, 0x9a, 0x01, 0x35, 0x3e,
  0x84, 0x2e, 0x4a, 0x3e, 0x53, 0x17, 0x0b, 0x3c, 0xad, 0xff, 0x7e, 0x3e,
  0xe8, 0x47, 0x9c, 0xbd, 0xec, 0xde, 0x7f, 0xbe, 0x1f, 0x69, 0x1b, 0xbc,
  0xab, 0xa2, 0xb8, 0xbd, 0x8c, 0xdf, 0x3e, 0xbe, 0x54, 0xc8, 0x13, 0xbe,
  0x9d, 0x62, 0xd6, 0xbd, 0x34, 0x02, 0x18, 0x3e, 0xd0, 0xe3, 0x80, 0x3e,
  0xe9, 0x03, 0x49, 0x3e, 0x70, 0x18, 0xd5, 0xbc, 0xbb, 0x42, 0xff, 0x3d,
  0xec, 0xeb, 0x35, 0xbe, 0x4a, 0xa1, 0x5e, 0xbe, 0xc6, 0xed, 0x7e, 0x3d,
  0x58, 0xcd, 0x5b, 0xbe, 0x24, 0x73, 0x1d, 0xbe, 0xf0, 0x3d, 0x54, 0x3e,
  0x30, 0xaa, 0x2a, 0xbe, 0xe0, 0xd7, 0x26, 0x3e, 0x58, 0xa4, 0x93, 0x3d,
  0xb8, 0xb0, 0x04, 0xbe, 0x68, 0xd0, 0x50, 0x3e, 0x88, 0x71, 0xa8, 0x3d,
  0x4c, 0xe4, 0x27, 0xbe, 0xa0, 0xdc, 0xe7, 0xbc, 0x80, 0xe9, 0x9f, 0xbb,
  0x58, 0x6d, 0x29, 0xbe, 0xf0, 0xdf, 0xd5, 0xbd, 0x30, 0xca, 0x62, 0x3d,
  0x34, 0x8a, 0x19, 0xbe, 0x4b, 0xe4, 0x16, 0x3d, 0x9a, 0x7c, 0x24, 0x3d,
  0x72, 0xbb, 0x02, 0x3e, 0x06, 0xc9, 0x9d, 0x3d, 0x19, 0x63, 0x17, 0x3e,
  0x9e, 0x3e, 0x05, 0xbd, 0x14, 0xac, 0x8e, 0xbe, 0x19, 0xf5, 0x82, 0xbe,
  0xd4, 0x59, 0x3f, 0x3e, 0xc1, 0xd7, 0xba, 0xbd, 0x32, 0x28, 0x99, 0x3d,
  0x4b, 0xc3, 0x56, 0x3e, 0x81, 0xa9, 0x92, 0xbd, 0x7f, 0x8c, 0xd6, 0x3d,
  0xbf, 0x65, 0xd9, 0x3d, 0xa8, 0x43, 0x48, 0x3e, 0x4c, 0x02, 0x2d, 0x3e,
  0xb4, 0x95, 0x2c, 0x3e, 0x1e, 0xbb, 0xa9, 0x3d, 0x7a, 0x8c, 0xd7, 0x3d,
  0x1d, 0x83, 0x1e, 0x3e, 0xeb, 0x3e, 0x9f, 0xbd, 0xb3, 0x6f, 0x94, 0x3d,
  0x61, 0xd2, 0x1b, 0x3e, 0x80, 0xd7, 0x27, 0xbd, 0xee, 0x67, 0xce, 0x3d,
  0x77, 0x4d, 0x84, 0xbe, 0x60, 0xea, 0x9d, 0x3d, 0xc0, 0x92, 0x0e, 0x3e,
  0x82, 0xf6, 0x89, 0x3d, 0x5c, 0xc6, 0x14, 0xbe, 0xf4, 0x27, 0x94, 0x3d,
  0xac, 0x72, 0x0f, 0xbe, 0xe4, 0xd1, 0x70, 0xbe, 0x40, 0x32, 0x1c, 0x3d,
  0xb0, 0xa3, 0x06, 0xbe, 0xb0, 0x11, 0xee, 0xbd, 0x50, 0x4c, 0xfb, 0xbd,
  0xf4, 0xed, 0x6d, 0xbe, 0xf0, 0x73, 0xdb, 0x3d, 0xbd, 0xde, 0x21, 0xbe,
  0x23, 0x72, 0x52, 0x3c, 0x28, 0x26, 0xfe, 0x3d, 0xe0, 0xf4, 0x14, 0xbe,
  0xe8, 0xeb, 0xea, 0xbd, 0x80, 0x62, 0x44, 0xbe, 0x4a, 0x56, 0x45, 0x3e,
  0x10, 0xa4, 0x4c, 0x3d, 0xb4, 0x63, 0xc8, 0x3c, 0x58, 0x65, 0xf0, 0xbd,
  0x48, 0x90, 0xa5, 0xbd, 0x74, 0xe8, 0x6e, 0xbe, 0x80, 0x77, 0xc0, 0xbd,
  0x92, 0x0d, 0x21, 0x3e, 0x75, 0x37, 0x4f, 0x3d, 0x23, 0x9a, 0xa8, 0xbb,
  0xd9, 0x10, 0x5c, 0xbe, 0x5b, 0x55, 0x25, 0xbd, 0x99, 0x14, 0xe6, 0x3d,
  0x48, 0x7a, 0x55, 0xbe, 0x5c, 0x3f, 0x8e, 0xbd, 0x5a, 0x83, 0x24, 0xbe,
  0xa5, 0x4b, 0x03, 0xbe, 0x23, 0x96, 0xe2, 0xbc, 0x16, 0x41, 0x29, 0xbe,
  0xf4, 0x6d, 0xaa, 0xbc, 0xf8, 0x4b, 0x1b, 0xbe, 0x0b, 0xd9, 0xf4, 0xbc,
  0x18, 0xfb, 0xee, 0xbd, 0x18, 0x93, 0x14, 0xbe, 0x99, 0x6c, 0x0b, 0xbe,
  0x60, 0x24, 0x85, 0xbd, 0x9c, 0x79, 0xad, 0xbd, 0x6b, 0x2a, 0xed, 0xbc,
  0xb0, 0x64, 0xfa, 0xbd, 0xc4, 0xf8, 0x7a, 0xbe, 0xf8, 0xec, 0x2b, 0x3e,
  0x5d, 0x14, 0x13, 0xbd, 0xd3, 0x0d, 0x65, 0x3e, 0xa3, 0x21, 0x5e, 0xbe,
  0x0d, 0x4b, 0x17, 0xbe, 0xb2, 0xf9, 0x2c, 0x3e, 0xe3, 0xf3, 0x80, 0x3b,
  0x88, 0xe7, 0x1c, 0xbe, 0x3f, 0x92, 0x14, 0xbb, 0x20, 0xca, 0x04, 0xbe,
  0x07, 0x18, 0x57, 0x3e, 0xe1, 0x1e, 0x5d, 0xbc, 0x3e, 0xdd, 0x83, 0xbe,
  0xef, 0x9d, 0x8d, 0xbd, 0x4e, 0xf9, 0x11, 0xbd, 0xd6, 0x13, 0x47, 0x3e,
  0x7d, 0x87, 0x51, 0x3e, 0x7e, 0x83, 0xa5, 0xbd, 0xb9, 0x84, 0xdf, 0xbd,
  0xb9, 0x3a, 0xe0, 0x3d, 0x26, 0xde, 0xff, 0xff, 0x10, 0x00, 0x00, 0x00,
  0x0a, 0x00, 0x00, 0x00, 0x1c, 0x00, 0x00, 0x00, 0x38, 0x00, 0x00, 0x00,
  0x04, 0x00, 0x00, 0x00, 0x10, 0x00, 0x00, 0x00, 0x04, 0x00, 0x00, 0x00,
  0x01, 0x00, 0x00, 0x00, 0x08, 0x00, 0x00, 0x00, 0x1a, 0x00, 0x00, 0x00,
  0x73, 0x65, 0x71, 0x75, 0x65, 0x6e, 0x74, 0x69, 0x61, 0x6c, 0x2f, 0x63,
  0x6f, 0x6e, 0x76, 0x32, 0x64, 0x5f, 0x31, 0x2f, 0x43, 0x6f, 0x6e, 0x76,
  0x32, 0x44, 0x00, 0x00, 0x9c, 0xdd, 0xff, 0xff, 0xa6, 0xde, 0xff, 0xff,
  0x04, 0x00, 0x00, 0x00, 0x80, 0x01, 0x00, 0x00, 0xe9, 0x72, 0x33, 0x3e,
  0xf1, 0xe1, 0x11, 0x3e, 0xc4, 0xf4, 0x70, 0x3d, 0x2e, 0x03, 0x39, 0x3d,
  0xd2, 0x61, 0x19, 0x3d, 0x86, 0x59, 0x65, 0xbe, 0xd7, 0x8f, 0xd8, 0x3d,
  0x8f, 0x91, 0x87, 0xbe, 0xa8, 0xc6, 0x66, 0xbd, 0x2e, 0x60, 0xc4, 0xbd,
  0x41, 0x57, 0x17, 0x3e, 0xc4, 0x96, 0x36, 0x3d, 0x0e, 0x74, 0xf6, 0xbd,
  0x77, 0xab, 0x8e, 0xbd, 0x8d, 0xf5, 0x3a, 0x3e, 0xc4, 0xbd, 0x9c, 0xbd,
  0xb1, 0x0b, 0x35, 0x3e, 0x2a, 0x18, 0x20, 0x3d, 0x94, 0x5d, 0x3b, 0x3e,
  0xca, 0x7a, 0x8e, 0x3d, 0xf3, 0xe2, 0x93, 0x3d, 0xf6, 0xd7, 0xfc, 0xbd,
  0x05, 0x2e, 0xef, 0x3d, 0xb4, 0x30, 0x3b, 0xbd, 0xab, 0x15, 0x76, 0xbd,
  0x0d, 0x82, 0x38, 0xbe, 0x4d, 0x41, 0x6d, 0x3e, 0xf8, 0x41, 0x09, 0x3b,
  0x40, 0x87, 0x11, 0x3e, 0xd9, 0xca, 0xf2, 0xbd, 0xaa, 0xc0, 0x64, 0x3e,
  0x3c, 0x12, 0x9f, 0x3c, 0xd6, 0xa6, 0x52, 0xbe, 0x38, 0x30, 0xf8, 0xbd,
  0x0e, 0x72, 0x65, 0xbe, 0xd6, 0xad, 0x2e, 0xbe, 0x76, 0x6d, 0x9d, 0xbd,
  0x23, 0xbd, 0x2e, 0xbd, 0x3e, 0xa6, 0x09, 0xbe, 0x4c, 0x7e, 0x80, 0x3c,
  0x56, 0x48, 0xe1, 0x3d, 0x26, 0x2f, 0x2a, 0xbe, 0x4a, 0xd1, 0x3f, 0x3e,
  0x10, 0x0b, 0x5d, 0x3e, 0x8b, 0x10, 0x1e, 0x3e, 0xbb, 0xd2, 0xea, 0xbc,
  0x37, 0x4e, 0x8c, 0x3b, 0x81, 0x06, 0x25, 0x3e, 0x64, 0x20, 0xbb, 0xbd,
  0x07, 0x79, 0x05, 0x3e, 0xff, 0x33, 0xc2, 0x3d, 0x5a, 0x2c, 0x80, 0x3d,
  0xde, 0x4a, 0xf8, 0xbd, 0x41, 0x20, 0xea, 0xbd, 0xfb, 0xc4, 0xf6, 0xbd,
  0xf8, 0x90, 0xfb, 0xbd, 0x56, 0xca, 0x1d, 0xbe, 0x9f, 0x78, 0x58, 0x3e,
  0x88, 0x66, 0x96, 0xbd, 0xa3, 0x42, 0x31, 0xbe, 0xf8, 0x6d, 0x09, 0xbe,
  0xb2, 0x2a, 0xd2, 0x3b, 0xae, 0xcb, 0x41, 0x3e, 0x53, 0x44, 0xd1, 0xbb,
  0x86, 0x88, 0x65, 0xbc, 0xfd, 0x98, 0x1b, 0x3e, 0x11, 0xf5, 0xd9, 0x3c,
  0xef, 0x5d, 0x2e, 0x3e, 0x77, 0x8b, 0xee, 0x3d, 0x8c, 0xff, 0x4f, 0x3e,
  0x70, 0x49, 0x25, 0xbe, 0xed, 0xfe, 0x82, 0x3d, 0x21, 0xf4, 0xc0, 0x3d,
  0x01, 0x86, 0x6a, 0x3e, 0xe4, 0x20, 0x71, 0xbd, 0xf9, 0x66, 0xcc, 0xbb,
  0xff, 0xbf, 0x53, 0x3d, 0xf4, 0xfb, 0x2f, 0xbe, 0x79, 0x27, 0x04, 0x3e,
  0x18, 0x9a, 0xac, 0xbd, 0x00, 0x28, 0x2d, 0xbb, 0xf0, 0x1c, 0x34, 0x3e,
  0x6f, 0xb2, 0xe9, 0x3c, 0xcb, 0xf2, 0x6f, 0x3e, 0x4e, 0x8d, 0x8d, 0x3d,
  0xfa, 0xa3, 0x0e, 0x3e, 0xb1, 0x13, 0xc1, 0xbd, 0xe0, 0x2c, 0x99, 0x3b,
  0xc8, 0x8a, 0x2a, 0xbe, 0xa6, 0x27, 0x33, 0xbe, 0x60, 0xf8, 0xb7, 0xbd,
  0xea, 0x37, 0x63, 0xbd, 0xc3, 0xd1, 0xe1, 0xbd, 0x52, 0x5e, 0xca, 0x3d,
  0xce, 0xae, 0x79, 0xbd, 0x9b, 0x32, 0x65, 0x3d, 0xfe, 0xdf, 0xff, 0xff,
  0x10, 0x00, 0x00, 0x00, 0x09, 0x00, 0x00, 0x00, 0x1c, 0x00, 0x00, 0x00,
  0x38, 0x00, 0x00, 0x00, 0x04, 0x00, 0x00, 0x00, 0x08, 0x00, 0x00, 0x00,
  0x04, 0x00, 0x00, 0x00, 0x03, 0x00, 0x00, 0x00, 0x01, 0x00, 0x00, 0x00,
  0x18, 0x00, 0x00, 0x00, 0x73, 0x65, 0x71, 0x75, 0x65, 0x6e, 0x74, 0x69,
  0x61, 0x6c, 0x2f, 0x63, 0x6f, 0x6e, 0x76, 0x32, 0x64, 0x2f, 0x43, 0x6f,
  0x6e, 0x76, 0x32, 0x44, 0x00, 0x00, 0x00, 0x00, 0x74, 0xdf, 0xff, 0xff,
  0x7e, 0xe0, 0xff, 0xff, 0x04, 0x00, 0x00, 0x00, 0xc0, 0x00, 0x00, 0x00,
  0x80, 0x73, 0xa6, 0x3e, 0xf9, 0xfd, 0x0d, 0xbf, 0xbe, 0xe0, 0x8b, 0x3e,
  0xb5, 0xfb, 0xf8, 0x3e, 0x1e, 0x31, 0x4e, 0xbe, 0xab, 0x92, 0x1e, 0xbd,
  0x7d, 0x32, 0x36, 0xbe, 0x30, 0x62, 0x85, 0x3c, 0x19, 0xb1, 0x9d, 0x3e,
  0x2e, 0x8b, 0x2c, 0xbb, 0xba, 0x85, 0xd2, 0x3e, 0xab, 0xc2, 0xc5, 0x3e,
  0x7f, 0x72, 0x56, 0x3e, 0x8a, 0x2a, 0xf5, 0x3e, 0xbd, 0xa6, 0x0b, 0xbf,
  0xca, 0xfa, 0xa0, 0xbd, 0x65, 0x84, 0xcc, 0xbe, 0xb0, 0x8e, 0x77, 0x3e,
  0xa7, 0x9b, 0x8a, 0x3e, 0xad, 0x18, 0x81, 0xbd, 0xc0, 0x61, 0xff, 0x3e,
  0x32, 0xb2, 0x96, 0x3e, 0xa3, 0x6a, 0x09, 0x3e, 0x1a, 0xe7, 0x05, 0xbf,
  0x34, 0xd3, 0x9f, 0xbc, 0x68, 0xf0, 0x7e, 0x3d, 0xa8, 0xd5, 0x3d, 0x3e,
  0xee, 0x76, 0xc4, 0x3e, 0xb9, 0x86, 0x19, 0x3e, 0xc2, 0x2d, 0xaf, 0xbd,
  0x7c, 0xa1, 0xc8, 0x3e, 0x34, 0x15, 0x97, 0xbe, 0x16, 0xb0, 0x3e, 0x3d,
  0x01, 0x12, 0xfd, 0x3e, 0x54, 0x23, 0xc2, 0x3e, 0x3d, 0x00, 0x57, 0xbc,
  0xf5, 0x61, 0x6c, 0xbe, 0x84, 0x4f, 0x09, 0xbf, 0xd9, 0xd2, 0x06, 0xbf,
  0x59, 0x97, 0x17, 0x3e, 0xbe, 0xb7, 0xa0, 0x3d, 0xda, 0x12, 0x78, 0x3e,
  0x1e, 0xa7, 0xa5, 0x3e, 0x88, 0xec, 0x10, 0x3e, 0x39, 0x2b, 0xe6, 0x3e,
  0x23, 0x43, 0xef, 0xbe, 0xb1, 0x82, 0x10, 0xbe, 0x09, 0x18, 0x07, 0x3f,
  0x16, 0xe1, 0xff, 0xff, 0x10, 0x00, 0x00, 0x00, 0x08, 0x00, 0x00, 0x00,
  0x14, 0x00, 0x00, 0x00, 0x30, 0x00, 0x00, 0x00, 0x02, 0x00, 0x00, 0x00,
  0x03, 0x00, 0x00, 0x00, 0x10, 0x00, 0x00, 0x00, 0x19, 0x00, 0x00, 0x00,
  0x73, 0x65, 0x71, 0x75, 0x65, 0x6e, 0x74, 0x69, 0x61, 0x6c, 0x2f, 0x64,
  0x65, 0x6e, 0x73, 0x65, 0x5f, 0x31, 0x2f, 0x4d, 0x61, 0x74, 0x4d, 0x75,
  0x6c, 0x00, 0x00, 0x00, 0x84, 0xe0, 0xff, 0xff, 0x8e, 0xe1, 0xff, 0xff,
  0x04, 0x00, 0x00, 0x00, 0x00, 0x1c, 0x00, 0x00, 0x55, 0x70, 0x7a, 0x3c,
  0x4d, 0x48, 0x44, 0xbd, 0x95, 0xc9, 0x98, 0xbb, 0xc0, 0xe4, 0xcd, 0x3d,
  0xbf, 0x22, 0x0d, 0xbe, 0x8f, 0xfe, 0x3d, 0x3c, 0x22, 0xeb, 0x07, 0x3d,
  0x92, 0xbf, 0xb9, 0xbd, 0x1d, 0xfe, 0x14, 0x3e, 0x72, 0x88, 0x9c, 0x3d,
  0x8b, 0xce, 0x31, 0x3e, 0x38, 0xd2, 0x27, 0x3e, 0xc1, 0x98, 0x47, 0x3e,
  0x48, 0xd1, 0xdc, 0xbc, 0x32, 0xfd, 0x55, 0xbe, 0x23, 0xe5, 0x49, 0xbe,
  0xe7, 0x96, 0x47, 0xbe, 0xc3, 0x4b, 0x24, 0xbe, 0xd5, 0x7b, 0x2a, 0xbe,
  0x28, 0x83, 0x11, 0x3e, 0x61, 0xe3, 0x8e, 0xbc, 0x7a, 0x95, 0x06, 0x3e,
  0xcf, 0x6f, 0xf9, 0x3d, 0x3b, 0xd4, 0x1a, 0x3e, 0xc2, 0x0f, 0xe2, 0xbd,
  0x2b, 0xa0, 0x65, 0xbe, 0x30, 0x1d, 0x9a, 0xbd, 0x5d, 0xc4, 0x0d, 0x3e,
  0x18, 0x43, 0x94, 0x3c, 0xa0, 0xc9, 0x2b, 0xba, 0xe7, 0xa4, 0x12, 0x3e,
  0x62, 0xca, 0xe1, 0x3d, 0xc7, 0x6f, 0x2d, 0x3e, 0xae, 0x5c, 0x0a, 0x3e,
  0xc1, 0xb9, 0x3c, 0x3e, 0x83, 0xb5, 0x40, 0xbe, 0x70, 0x6b, 0xaa, 0x3d,
  0x2e, 0xa8, 0x83, 0xbc, 0x7d, 0x5d, 0x31, 0xbe, 0xcd, 0x0d, 0xb9, 0xbd,
  0x09, 0xb0, 0x38, 0xbe, 0xf7, 0x42, 0xab, 0xbd, 0x6f, 0x9f, 0x13, 0x3e,
  0xa6, 0x33, 0x3b, 0xbe, 0x23, 0x4a, 0xf3, 0xbd, 0x75, 0x47, 0x26, 0x3e,
  0xca, 0x57, 0xbb, 0x3d, 0x41, 0x4a, 0x4b, 0xbe, 0xd3, 0x73, 0xef, 0x3c,
  0xe7, 0x7c, 0x2d, 0xba, 0x06, 0x43, 0x40, 0xbe, 0x33, 0xe2, 0x2d, 0xbe,
  0xa9, 0xb5, 0xb2, 0xbc, 0xd1, 0xc8, 0x38, 0xbe, 0x9a, 0xd5, 0xe9, 0xbd,
  0x9d, 0x7b, 0x0f, 0x3d, 0x64, 0xb2, 0x06, 0x3e, 0x72, 0xd4, 0x6b, 0xbe,
  0xfb, 0xe2, 0x93, 0x3d, 0x53, 0xf3, 0x44, 0x3d, 0x8c, 0x86, 0x38, 0xbd,
  0xfc, 0x2f, 0xf6, 0xbd, 0x4b, 0x34, 0x1a, 0xbe, 0x07, 0x8a, 0x3e, 0x3d,
  0x73, 0xb0, 0xa1, 0x3d, 0x57, 0x82, 0xfe, 0x3c, 0x8f, 0x35, 0x87, 0x3c,
  0xee, 0x87, 0xde, 0xbd, 0x23, 0x23, 0x29, 0xbe, 0x0b, 0xda, 0x24, 0x3d,
  0x25, 0x03, 0xae, 0xbc, 0xe5, 0xc4, 0xdb, 0x3a, 0xfa, 0x02, 0xe3, 0x3d,
  0x5c, 0x47, 0xc5, 0xbd, 0x52, 0xb9, 0x35, 0x3d, 0x2a, 0xc9, 0xd5, 0x3d,
  0x85, 0x24, 0x4c, 0x3e, 0x8c, 0xbf, 0x16, 0xbd, 0x5a, 0xb1, 0x3c, 0xbe,
  0x62, 0x0d, 0xd2, 0xbd, 0x24, 0xec, 0xff, 0x3d, 0x7e, 0x77, 0xc7, 0xbd,
  0xa0, 0x0e, 0x46, 0x3e, 0x42, 0x6f, 0x1c, 0x3e, 0xc8, 0x4d, 0xa8, 0xbd,
  0x3a, 0x3c, 0x9a, 0x3d, 0x94, 0x3e, 0xc2, 0x3d, 0xba, 0x99, 0x0c, 0x3e,
  0x25, 0x67, 0x19, 0x3e, 0x23, 0xd6, 0x55, 0xbd, 0xfe, 0x18, 0x24, 0xbd,
  0xa3, 0x73, 0x05, 0xbe, 0x44, 0xdc, 0x0b, 0xbe, 0x40, 0x58, 0xd0, 0x3d,
  0xa5, 0x50, 0x53, 0x3e, 0x5e, 0x07, 0x91, 0x3d, 0x75, 0x06, 0x21, 0xbd,
  0xb4, 0xe7, 0x07, 0xbc, 0x10, 0x09, 0xd8, 0x3d, 0xbd, 0x1a, 0x4c, 0xbe,
  0xf7, 0x6d, 0x16, 0x3c, 0xb2, 0x5e, 0x92, 0xbd, 0xac, 0x7c, 0x39, 0xbe,
  0xb2, 0x5b, 0xe5, 0x3d, 0x3a, 0x4b, 0x8d, 0xbb, 0xd3, 0x24, 0x31, 0xbe,
  0x24, 0xa2, 0xb8, 0x3d, 0x1f, 0x3f, 0x4c, 0xbe, 0x3c, 0x7e, 0xb2, 0xbd,
  0xf8, 0x1c, 0x46, 0xbe, 0x06, 0x6b, 0xe5, 0x3d, 0x08, 0xae, 0xa1, 0xbd,
  0xbd, 0x96, 0x60, 0x3e, 0x2b, 0x0b, 0x69, 0x3e, 0xe9, 0xf0, 0x1b, 0xbc,
  0xe2, 0xd7, 0xda, 0xbd, 0x33, 0xa0, 0x5b, 0x3e, 0x44, 0xc1, 0xbf, 0xbd,
  0x89, 0x47, 0x56, 0xbe, 0x4a, 0x4e, 0x74, 0x3d, 0x4c, 0x74, 0x07, 0xbe,
  0x16, 0xcb, 0x13, 0xbe, 0x62, 0x58, 0x35, 0x3e, 0xba, 0xee, 0xed, 0x3d,
  0xa6, 0xd6, 0xb9, 0x3d, 0xae, 0x15, 0x98, 0xb9, 0x38, 0xeb, 0xc4, 0x3c,
  0x99, 0x9f, 0x3c, 0x3e, 0xbf, 0x8e, 0x4d, 0x3e, 0x6e, 0x94, 0xdd, 0x3d,
  0x82, 0x6c, 0x5d, 0xbd, 0xd4, 0x24, 0x21, 0x3d, 0xa6, 0x81, 0x1d, 0xbe,
  0xc2, 0x51, 0xb7, 0x3a, 0x4c, 0x6b, 0x60, 0x3d, 0x19, 0x12, 0xff, 0xbd,
  0x6f, 0xa7, 0x62, 0x3d, 0xf0, 0xa2, 0x65, 0x3e, 0x24, 0x47, 0x8d, 0xbd,
  0xc5, 0xde, 0xf4, 0xbc, 0x6c, 0xab, 0x2d, 0xbd, 0x34, 0x1a, 0x49, 0x3d,
  0x30, 0x1d, 0x5c, 0xbe, 0x79, 0xe8, 0x09, 0xbe, 0x36, 0x41, 0x55, 0xbe,
  0xa0, 0x36, 0xab, 0xbc, 0xf9, 0x6b, 0x91, 0xbc, 0x28, 0x89, 0x4f, 0x3d,
  0x9a, 0x85, 0x8a, 0xbd, 0x13, 0x84, 0x35, 0xbe, 0xbb, 0xa5, 0x18, 0x3e,
  0xde, 0xe6, 0xdb, 0x3d, 0x41, 0xa6, 0x08, 0x3e, 0x7a, 0x54, 0x3d, 0x3d,
  0x93, 0x5c, 0x2e, 0x39, 0x47, 0x47, 0x19, 0xbd, 0xd4, 0xf2, 0xb1, 0xbd,
  0x5b, 0x2c, 0x1f, 0x3e, 0x7c, 0xb2, 0x3b, 0xbe, 0xdc, 0x5b, 0x49, 0xbe,
  0x5a, 0x36, 0xe4, 0x3d, 0xc9, 0x57, 0x36, 0x3e, 0x2b, 0x8e, 0x43, 0xbd,
  0x32, 0x48, 0xdd, 0x3d, 0x16, 0x61, 0xc1, 0xbd, 0x78, 0x37, 0xf6, 0x3d,
  0xf3, 0x8b, 0x1f, 0xbe, 0x4c, 0xd2, 0x63, 0xbd, 0xcf, 0x5a, 0x47, 0x3e,
  0x2a, 0x7a, 0x0f, 0xbe, 0xf1, 0x43, 0xb6, 0x3d, 0xaa, 0x9f, 0x4b, 0x3c,
  0x40, 0xfd, 0x43, 0xbe, 0x35, 0xde, 0x08, 0xbe, 0xbe, 0x37, 0xa7, 0xbd,
  0x28, 0xc1, 0x5d, 0xbd, 0xcf, 0x42, 0xc8, 0x3c, 0xff, 0x34, 0x07, 0x3e,
  0x43, 0x7e, 0x20, 0xbd, 0xdc, 0x1a, 0x2a, 0x3c, 0x8b, 0xd1, 0xbb, 0x3c,
  0x66, 0x77, 0x92, 0x3d, 0xf1, 0x1d, 0xd0, 0xbd, 0x8b, 0xe8, 0x57, 0x3d,
  0xbd, 0x8b, 0x3c, 0x3d, 0xac, 0x52, 0xef, 0x3d, 0x44, 0x01, 0x7a, 0x3e,
  0xa3, 0x14, 0x53, 0x3b, 0x58, 0x8c, 0xc6, 0x3c, 0xc5, 0x4a, 0xee, 0xbd,
  0x8b, 0xec, 0x04, 0x3e, 0xc9, 0xa4, 0x18, 0x3e, 0xe0, 0xe1, 0x30, 0xbd,
  0xec, 0x1b, 0x44, 0x3e, 0x80, 0x16, 0x98, 0xbd, 0x33, 0x72, 0xee, 0xbc,
  0xc7, 0x62, 0x5c, 0x3c, 0x53, 0xe7, 0x45, 0x3e, 0xee, 0xdf, 0x51, 0xbd,
  0x3f, 0xf5, 0xce, 0xbd, 0x7d, 0xaa, 0x86, 0x3d, 0xdd, 0xec, 0xb7, 0x3c,
  0xf6, 0xa9, 0x41, 0xbe, 0x0c, 0x93, 0x25, 0xbd, 0x72, 0x17, 0xb5, 0xbd,
  0x6d, 0xf7, 0xcd, 0xbd, 0x5b, 0xe4, 0x59, 0xbe, 0xee, 0x70, 0xf5, 0xbd,
  0x59, 0x5f, 0x24, 0xbe, 0xe3, 0x95, 0x7c, 0x3e, 0x84, 0x10, 0x4f, 0x3c,
  0x85, 0xba, 0x19, 0x3c, 0xc7, 0x6a, 0x1b, 0x3e, 0x89, 0x1c, 0x13, 0x3e,
  0x01, 0x93, 0x5f, 0x3e, 0x93, 0x3a, 0x16, 0x3e, 0xf2, 0xf0, 0x73, 0xbd,
  0x64, 0xd7, 0x0d, 0xbe, 0x07, 0x0a, 0x72, 0x3d, 0x1b, 0x6d, 0xf4, 0x3d,
  0xd6, 0xdd, 0x85, 0x3d, 0x06, 0xb8, 0x1b, 0x3e, 0xaa, 0x5e, 0xba, 0xbd,
  0x8a, 0x66, 0x9a, 0xbd, 0xa2, 0x0d, 0x23, 0x3e, 0x4c, 0x82, 0x3f, 0x3e,
  0xcf, 0x1f, 0x34, 0xbe, 0x7c, 0x29, 0x0b, 0x3e, 0xe3, 0xec, 0xc4, 0x3d,
  0x3c, 0xff, 0x28, 0xbe, 0xf9, 0xdc, 0x12, 0xbe, 0x5e, 0xff, 0x5d, 0x3e,
  0xc1, 0x7b, 0x24, 0x3e, 0x3e, 0xca, 0x83, 0x3e, 0xe9, 0xac, 0x25, 0xbe,
  0xd3, 0x32, 0xfa, 0x3d, 0xb8, 0x4a, 0x8b, 0x3c, 0x35, 0xd1, 0x50, 0x3e,
  0x0e, 0x4c, 0xa6, 0x3d, 0x6b, 0xa8, 0xc8, 0x3d, 0xe3, 0x37, 0xb9, 0xbd,
  0x83, 0xb7, 0x90, 0x3e, 0xcc, 0xe4, 0x28, 0xbe, 0x9d, 0x43, 0x49, 0x3e,
  0xf3, 0xb6, 0x97, 0x3c, 0xba, 0xd2, 0x3e, 0x3e, 0x15, 0x2a, 0x11, 0x3e,
  0x6f, 0x3c, 0x47, 0x3e, 0xaf, 0x5b, 0x05, 0x3e, 0x26, 0x44, 0x3d, 0x3e,
  0xed, 0xc8, 0x2b, 0x3b, 0x3b, 0xc6, 0x36, 0xbe, 0x28, 0xdc, 0x28, 0xbe,
  0xfa, 0x01, 0x48, 0x3e, 0xa0, 0x27, 0xdb, 0xbc, 0x02, 0xe2, 0x07, 0xbe,
  0x3d, 0xb3, 0x54, 0xbd, 0x0c, 0x49, 0x6b, 0x3c, 0x8f, 0x09, 0xe7, 0xbd,
  0xf4, 0x40, 0x4c, 0x3e, 0x5d, 0x5f, 0x27, 0x3c, 0xeb, 0x89, 0x34, 0x3e,
  0x5a, 0x69, 0x73, 0x3d, 0x5d, 0x01, 0x57, 0x3e, 0x0b, 0x91, 0x8b, 0xbd,
  0xbf, 0x85, 0x89, 0xbc, 0xe4, 0x70, 0xaa, 0xbd, 0x8e, 0x27, 0x70, 0x3e,
  0x71, 0xc4, 0x5a, 0x3e, 0x60, 0xe3, 0x46, 0x3e, 0xbe, 0x98, 0x11, 0xbe,
  0xb6, 0xed, 0x07, 0xbe, 0xbf, 0xf7, 0x76, 0x3d, 0xde, 0x95, 0x94, 0x3e,
  0xee, 0x79, 0x52, 0x3e, 0xe8, 0x61, 0x21, 0xbe, 0xca, 0xf0, 0x92, 0x3c,
  0x99, 0x6b, 0xad, 0x3d, 0x74, 0x5d, 0x63, 0xbd, 0xee, 0x51, 0x91, 0xbd,
  0xed, 0xa7, 0x6b, 0x3d, 0x69, 0x3c, 0x55, 0xbc, 0xb3, 0xf5, 0x21, 0x3e,
  0xd9, 0xfe, 0xab, 0x3d, 0x35, 0x3e, 0x2e, 0xbe, 0x06, 0x77, 0x5f, 0x3e,
  0x96, 0xf5, 0x97, 0xbd, 0x50, 0x94, 0xd1, 0xbd, 0xcf, 0x38, 0x56, 0x3e,
  0x3a, 0xb2, 0x8c, 0x3e, 0x7c, 0xe0, 0xca, 0xbd, 0x47, 0x44, 0x28, 0xbe,
  0x17, 0x47, 0x3a, 0xbc, 0x70, 0x83, 0xcb, 0x3d, 0x1d, 0x28, 0x41, 0xbe,
  0x1d, 0xe6, 0x96, 0xbd, 0x8c, 0x32, 0xd2, 0xbd, 0x97, 0x94, 0x5b, 0x3d,
  0x3e, 0x6c, 0x3b, 0xbe, 0x37, 0x94, 0x44, 0xbd, 0xd8, 0x8d, 0xc6, 0x3c,
  0x18, 0x8d, 0x06, 0x3e, 0x8c, 0x6e, 0x63, 0x3d, 0x9c, 0x72, 0x54, 0xbe,
  0x47, 0xf6, 0xe6, 0xbd, 0xb2, 0x94, 0x9c, 0x3e, 0x01, 0x81, 0x7e, 0xbc,
  0x0b, 0x55, 0x4a, 0x3d, 0xc8, 0x43, 0x0d, 0xbe, 0x77, 0x79, 0x93, 0x3d,
  0xdd, 0xd1, 0x49, 0xbd, 0xfa, 0x48, 0x42, 0x3e, 0x54, 0xcf, 0x36, 0xbc,
  0x2f, 0x06, 0xe5, 0x3d, 0x4a, 0x54, 0xfa, 0xbc, 0x60, 0xf9, 0x77, 0x3d,
  0x5e, 0x54, 0x81, 0xbd, 0x6a, 0xca, 0x94, 0x3d, 0xe2, 0xc4, 0x18, 0xbe,
  0x00, 0xc5, 0x06, 0xbe, 0x4c, 0x2d, 0xb1, 0x3d, 0x08, 0x67, 0x4b, 0x3e,
  0xbc, 0x15, 0x15, 0xbd, 0x82, 0x8c, 0x20, 0xbd, 0x55, 0x48, 0xee, 0xbc,
  0xcb, 0xb3, 0x9a, 0xbd, 0x96, 0x95, 0x1f, 0xbd, 0x06, 0x3d, 0x15, 0x3e,
  0x39, 0xf5, 0x8e, 0xbd, 0xc0, 0xeb, 0x48, 0xbd, 0xcb, 0xfd, 0xd9, 0xbd,
  0x1d, 0x0b, 0x4b, 0x3e, 0xfc, 0x53, 0x2e, 0x3e, 0xa3, 0xdf, 0xa2, 0xbd,
  0x96, 0x70, 0xd1, 0x3d, 0x67, 0x32, 0x25, 0xbe, 0x35, 0x78, 0x18, 0x3e,
  0x33, 0x8a, 0xf4, 0x3c, 0xda, 0x70, 0xfa, 0xbd, 0x70, 0x59, 0x9e, 0xbb,
  0x2b, 0x4c, 0xbd, 0x3d, 0xd4, 0x97, 0xb5, 0xbd, 0xad, 0xf4, 0x28, 0x3e,
  0x68, 0x72, 0x7d, 0xbd, 0x68, 0x00, 0xff, 0xbd, 0xbd, 0xca, 0x82, 0xbe,
  0xe2, 0x5d, 0x31, 0xbe, 0x34, 0x3a, 0x28, 0x3e, 0xf0, 0x90, 0xb3, 0x3c,
  0x88, 0x95, 0xec, 0x3b, 0xa6, 0x00, 0xd6, 0xbd, 0x80, 0xff, 0x46, 0x3e,
  0x6f, 0x79, 0x3f, 0x3e, 0xf9, 0x20, 0xbd, 0xbd, 0x60, 0x54, 0x03, 0x3d,
  0xb5, 0xc5, 0x8c, 0x3d, 0x1c, 0x19, 0x12, 0xbe, 0x1e, 0xeb, 0x31, 0x3e,
  0xd7, 0x19, 0x18, 0x3d, 0x22, 0x2a, 0x64, 0xbe, 0x45, 0x4f, 0x82, 0x3d,
  0xdc, 0x5c, 0xf4, 0xbd, 0x56, 0x9a, 0xd6, 0x3c, 0x4a, 0xf1, 0x37, 0x3e,
  0x87, 0x16, 0x3a, 0x3e, 0x0e, 0xf1, 0x2c, 0x3e, 0xf2, 0xe6, 0xaf, 0x3d,
  0x2c, 0x75, 0x1e, 0xbd, 0x7a, 0x9d, 0x72, 0x3d, 0xb7, 0x01, 0x1f, 0x3d,
  0x70, 0x61, 0x1b, 0x3e, 0xee, 0xb0, 0x16, 0x3e, 0xf1, 0x81, 0x4e, 0xbe,
  0xc4, 0x50, 0x2d, 0x3e, 0xca, 0x09, 0x43, 0x3e, 0xe4, 0xf2, 0x85, 0xbd,
  0x8f, 0x1d, 0x13, 0x3d, 0x42, 0xc8, 0xd6, 0xbc, 0x16, 0x4b, 0x9a, 0xbc,
  0x29, 0x09, 0xd8, 0x3d, 0x4f, 0xe3, 0xda, 0xbd, 0xc0, 0x35, 0xc8, 0xbd,
  0x5e, 0xae, 0xb7, 0xbd, 0xe4, 0x68, 0xa4, 0xbd, 0x78, 0xe3, 0x22, 0xbe,
  0x16, 0x46, 0x59, 0x3d, 0x4d, 0x73, 0x25, 0xbe, 0x2b, 0x93, 0x45, 0x3d,
  0x59, 0x0b, 0x53, 0xbd, 0x02, 0x0b, 0x26, 0x3d, 0xf0, 0x44, 0x0a, 0xbe,
  0xea, 0x5c, 0x1f, 0xbe, 0x8e, 0x4b, 0x2d, 0xbc, 0xd7, 0x80, 0x19, 0xbe,
  0x60, 0x3c, 0x1e, 0xbd, 0x5c, 0x97, 0x6a, 0xbe, 0x0a, 0xaf, 0xc1, 0xbd,
  0xb3, 0x3a, 0xbf, 0xbd, 0xe3, 0x26, 0xf8, 0xbd, 0x56, 0x2e, 0x0f, 0xbc,
  0x3e, 0xc8, 0x1c, 0x3e, 0xe4, 0x98, 0xc4, 0xbd, 0x7f, 0xc7, 0x95, 0x3d,
  0xb7, 0x77, 0x1d, 0x3e, 0xea, 0x4b, 0x05, 0xbc, 0xd1, 0x77, 0x8d, 0x3c,
  0x36, 0x60, 0x00, 0x3e, 0xc5, 0x66, 0xe2, 0x3d, 0x84, 0xce, 0xe8, 0x3c,
  0xad, 0xd4, 0x06, 0xbe, 0xc1, 0x66, 0xa6, 0x3d, 0xd9, 0xfe, 0xe1, 0xbc,
  0x81, 0xa2, 0x5d, 0x3e, 0x10, 0x4c, 0x0d, 0x3e, 0xb1, 0x92, 0x2d, 0x3e,
  0x9c, 0x67, 0x13, 0xbe, 0x47, 0xa2, 0x48, 0xbd, 0x51, 0xbf, 0x6f, 0xbe,
  0x52, 0x0f, 0xe6, 0xbd, 0x6a, 0x21, 0x4c, 0xbe, 0xd3, 0x4b, 0xed, 0x3d,
  0xdc, 0x09, 0xd5, 0x3d, 0xe5, 0xb6, 0x11, 0x3e, 0x2a, 0x29, 0x01, 0x3d,
  0x24, 0x62, 0x27, 0xbe, 0xea, 0x0c, 0x44, 0xbe, 0x52, 0x60, 0xd8, 0xbd,
  0xcd, 0xb4, 0x03, 0x3e, 0x34, 0x60, 0x4e, 0x3d, 0x2e, 0x4a, 0x45, 0xbe,
  0xee, 0x39, 0x1e, 0xbe, 0x7b, 0x06, 0x44, 0xbd, 0x71, 0xac, 0x9c, 0xbd,
  0xc2, 0x5e, 0xaf, 0xbd, 0x69, 0xea, 0x39, 0x3e, 0x1d, 0x1f, 0xfd, 0x3d,
  0x09, 0x31, 0x18, 0x3e, 0xf5, 0xd8, 0x4f, 0xbe, 0xdb, 0x6e, 0xa1, 0x3c,
  0xb9, 0x7e, 0x32, 0xbd, 0xe0, 0x18, 0x90, 0x3b, 0xc5, 0x4b, 0x47, 0xbd,
  0x4f, 0x32, 0x4f, 0xbe, 0x32, 0x5b, 0x00, 0xbe, 0x35, 0xc6, 0xca, 0xbd,
  0xb0, 0x00, 0xdd, 0x3d, 0xcd, 0x0f, 0x1a, 0x3e, 0x4e, 0x90, 0xa3, 0x3d,
  0xc4, 0xf9, 0x12, 0x3e, 0xd3, 0xcd, 0xb0, 0x3d, 0x99, 0x2d, 0x2b, 0xbe,
  0xff, 0x2d, 0x25, 0x3e, 0x04, 0x04, 0xb0, 0x3d, 0xc5, 0x58, 0xdf, 0xbc,
  0x6f, 0xf0, 0x38, 0x3e, 0x8c, 0xd7, 0xf8, 0x3c, 0xc4, 0x01, 0xd2, 0xbd,
  0xcf, 0xd8, 0x7d, 0x3c, 0x7f, 0x5b, 0xa3, 0xbd, 0x33, 0x6e, 0x17, 0xbe,
  0xf4, 0x70, 0x8a, 0xbd, 0xb6, 0x08, 0x70, 0x3d, 0x16, 0xe9, 0x4b, 0xbe,
  0xab, 0xc2, 0x1a, 0xbe, 0xb8, 0xac, 0x20, 0x3e, 0xd9, 0x98, 0x6f, 0xbe,
  0xf4, 0x38, 0x2c, 0x3e, 0xde, 0x0e, 0xaf, 0xbd, 0xcc, 0x74, 0x28, 0xbe,
  0x6b, 0x42, 0x81, 0x3d, 0xe1, 0xbc, 0x4d, 0xbe, 0xcc, 0xfa, 0xd7, 0x3c,
  0xcb, 0x07, 0x64, 0xbe, 0xfd, 0xc6, 0x86, 0x3d, 0xec, 0xda, 0xc6, 0xbd,
  0xb4, 0x28, 0x20, 0x3e, 0x92, 0x8f, 0x99, 0x3d, 0x07, 0x70, 0x10, 0x3c,
  0xa9, 0x11, 0x47, 0x3e, 0x0e, 0xbf, 0x84, 0xbd, 0x7b, 0x74, 0xb4, 0x3d,
  0xae, 0x0c, 0x15, 0xbe, 0xab, 0x7e, 0x53, 0xbe, 0x18, 0x67, 0xf4, 0xbc,
  0x0a, 0xfd, 0xab, 0x3c, 0x81, 0x8a, 0x5f, 0xbe, 0xb9, 0xf2, 0x2f, 0x3e,
  0x2d, 0xa2, 0x38, 0xbe, 0x9d, 0xea, 0x21, 0x3e, 0xe1, 0x82, 0x6d, 0xbe,
  0xcd, 0xd4, 0x24, 0x3e, 0xbe, 0x66, 0x45, 0xbe, 0x3d, 0x98, 0x2a, 0x3e,
  0xe4, 0x76, 0x6c, 0xbb, 0x40, 0xb3, 0x3f, 0xbe, 0x92, 0x76, 0xbf, 0x3d,
  0xf9, 0xe2, 0xfc, 0x3d, 0xbe, 0x95, 0x78, 0xbe, 0x47, 0xbd, 0x4f, 0xbe,
  0x41, 0x53, 0xca, 0xbd, 0xda, 0x2e, 0xfb, 0x3c, 0xc7, 0x6f, 0x67, 0x3d,
  0x47, 0x51, 0x0f, 0x3e, 0xef, 0x34, 0xaa, 0xbd, 0xea, 0x1d, 0xc6, 0xbd,
  0x93, 0x17, 0x09, 0xbe, 0x5f, 0x53, 0x46, 0xbd, 0xe3, 0x9c, 0x28, 0x3e,
  0x78, 0xf2, 0x88, 0xbd, 0x06, 0xfc, 0xff, 0x3d, 0xdf, 0xe8, 0x17, 0x3e,
  0x52, 0xb2, 0xfc, 0x3d, 0x74, 0xd0, 0x44, 0x3e, 0x87, 0xdb, 0xfb, 0xbd,
  0x59, 0xb4, 0xbc, 0x3d, 0xed, 0xbf, 0x1b, 0x3e, 0xce, 0x75, 0x84, 0xbb,
  0xbe, 0x87, 0xbd, 0x3d, 0x78, 0x0c, 0x6b, 0xbe, 0xac, 0x6e, 0x27, 0xbd,
  0xcc, 0x3e, 0x3f, 0xbe, 0x5e, 0x7f, 0xdc, 0xbc, 0x5d, 0xc5, 0xab, 0xbd,
  0x74, 0x2a, 0x96, 0xbd, 0xfa, 0x96, 0xef, 0x3d, 0x6d, 0x46, 0x27, 0xbe,
  0x97, 0xd0, 0x11, 0xbe, 0x00, 0xf2, 0xf7, 0xbb, 0x88, 0x07, 0x0a, 0xbe,
  0xe1, 0x0c, 0x25, 0xbe, 0x3a, 0x7d, 0x0b, 0x3e, 0xe5, 0x09, 0x62, 0xbe,
  0x77, 0x22, 0xc3, 0x3d, 0x47, 0xd9, 0x5e, 0xbe, 0x76, 0x4c, 0xc6, 0xbd,
  0x0e, 0xaa, 0x6b, 0xbe, 0x84, 0x9b, 0x60, 0xbd, 0xc3, 0x70, 0x07, 0x3c,
  0xc5, 0x1e, 0xda, 0x3d, 0xf1, 0xac, 0x1f, 0xbe, 0x88, 0xcb, 0xd6, 0xbc,
  0x9a, 0x9f, 0xb5, 0x3d, 0xe5, 0x3e, 0x35, 0xbe, 0x81, 0x5f, 0xb6, 0xbc,
  0x05, 0xff, 0xb5, 0x3d, 0xbb, 0xc4, 0x15, 0x3c, 0xe2, 0xfc, 0x24, 0x3e,
  0x9b, 0xa4, 0x18, 0x3e, 0x49, 0x03, 0x24, 0xbe, 0xfb, 0xa2, 0x62, 0x3d,
  0xff, 0x9d, 0x44, 0xbe, 0xc1, 0x50, 0x7b, 0xbd, 0x62, 0x1e, 0x62, 0x3d,
  0x87, 0xbf, 0x0f, 0xbe, 0x50, 0x2d, 0x46, 0x3e, 0xc8, 0xce, 0xfc, 0x3d,
  0xc7, 0x0f, 0x48, 0xbe, 0x9b, 0x4b, 0x14, 0x3e, 0xcc, 0xcc, 0x3d, 0x3d,
  0xde, 0x6f, 0xb8, 0xbd, 0x38, 0x76, 0x07, 0xbe, 0xe0, 0xe9, 0x2f, 0xbe,
  0xaa, 0x5c, 0xf3, 0xbd, 0xcc, 0x1e, 0x0a, 0xbe, 0xee, 0xa7, 0x33, 0xbd,
  0xfb, 0x75, 0x20, 0xbe, 0x00, 0x34, 0xe3, 0xbd, 0xbb, 0xe4, 0xba, 0x3d,
  0x1a, 0x34, 0xc2, 0xbd, 0xd6, 0x25, 0x25, 0xbe, 0xea, 0x51, 0x27, 0xbe,
  0x1c, 0xc3, 0x4a, 0x3e, 0x66, 0x91, 0x45, 0xbe, 0xf6, 0x84, 0xb5, 0xbd,
  0xd3, 0x27, 0x07, 0x3e, 0xe8, 0xe6, 0x02, 0xbd, 0x30, 0xc7, 0x93, 0x3c,
  0xe0, 0xbb, 0x4f, 0x3e, 0x8c, 0x87, 0x35, 0xbe, 0x5d, 0x16, 0x8b, 0x3c,
  0xea, 0x23, 0x55, 0xbe, 0x68, 0xc8, 0x5f, 0xbe, 0x26, 0x68, 0x4e, 0xbd,
  0xf9, 0xe3, 0xa7, 0xbd, 0xcb, 0x9b, 0xcf, 0x3d, 0x3c, 0x85, 0xe1, 0xbd,
  0x00, 0x4b, 0xa1, 0xbc, 0xaa, 0x4e, 0x03, 0x3e, 0x48, 0x29, 0xe3, 0xbd,
  0x77, 0x94, 0xb9, 0xbc, 0x92, 0x9e, 0xe7, 0x3d, 0x9c, 0x68, 0x51, 0xbe,
  0xcb, 0xa1, 0x07, 0xbe, 0x54, 0xc1, 0x16, 0xbe, 0xf0, 0x42, 0x3d, 0x3e,
  0x19, 0x1e, 0x92, 0xbd, 0x0c, 0xd3, 0x0b, 0xbe, 0x76, 0xe1, 0x35, 0x3e,
  0x52, 0xa2, 0xb5, 0x3b, 0xca, 0x5a, 0xae, 0x3d, 0x73, 0xaf, 0x36, 0xbe,
  0xe8, 0xb9, 0xba, 0xbd, 0x23, 0xed, 0x0d, 0x3e, 0x4f, 0xd2, 0x9e, 0x3c,
  0xbc, 0x84, 0x70, 0x3d, 0x08, 0x4b, 0xcf, 0x3a, 0xf8, 0x91, 0xcd, 0xbc,
  0x8f, 0x37, 0x2a, 0x3e, 0xed, 0x26, 0x0a, 0xbe, 0x53, 0xa0, 0x3e, 0x3e,
  0x65, 0x34, 0x80, 0xbd, 0x8f, 0xd0, 0x75, 0xbd, 0xdb, 0x88, 0x0d, 0x3e,
  0x74, 0x60, 0x04, 0xbd, 0x80, 0xdd, 0x45, 0x3e, 0x8e, 0xb6, 0x44, 0xbe,
  0xe1, 0xef, 0x05, 0xbe, 0x3c, 0x4e, 0x65, 0x3d, 0x5b, 0x6e, 0x03, 0xbe,
  0x1f, 0xeb, 0xa6, 0x3d, 0x27, 0x3f, 0x23, 0x3e, 0x14, 0xea, 0xfc, 0xbc,
  0x82, 0xe0, 0x8d, 0x3d, 0xae, 0x32, 0xe6, 0x3d, 0x54, 0x50, 0xef, 0x3d,
  0x22, 0x15, 0x51, 0xbe, 0x6a, 0xfd, 0x0e, 0x3e, 0xe3, 0x57, 0x50, 0xbe,
  0x7e, 0x26, 0xd9, 0x3d, 0xc4, 0xde, 0xd9, 0x3d, 0x80, 0xef, 0x97, 0x3d,
  0x18, 0x2d, 0x4b, 0xbe, 0x78, 0x79, 0x41, 0x3e, 0x10, 0x3b, 0x41, 0xbe,
  0xae, 0xd9, 0x3c, 0xbe, 0x6e, 0x59, 0x41, 0xbe, 0xa0, 0x38, 0xed, 0x3c,
  0x92, 0x9c, 0xe8, 0xbd, 0x85, 0x57, 0x32, 0xbe, 0x62, 0x5c, 0xc8, 0x3d,
  0x8c, 0x0e, 0x09, 0xbe, 0x6c, 0xa2, 0x29, 0xbe, 0x31, 0xf5, 0x82, 0x3d,
  0xcd, 0x57, 0x29, 0x3d, 0x23, 0x60, 0xcc, 0xbd, 0x0b, 0x91, 0x1e, 0xbe,
  0xc6, 0xd3, 0x84, 0xbd, 0x61, 0xa9, 0x01, 0x3c, 0xc7, 0xd6, 0x16, 0x3e,
  0xf5, 0x98, 0xf8, 0x3d, 0x55, 0x13, 0x24, 0x3e, 0x1b, 0xc4, 0x44, 0xbd,
  0x3e, 0x27, 0xe1, 0x3d, 0x7d, 0xec, 0x8d, 0xbd, 0x3e, 0x74, 0xd0, 0xbd,
  0x29, 0xfb, 0x06, 0x3e, 0x63, 0x2d, 0xcd, 0x3b, 0x2f, 0x49, 0x19, 0xbe,
  0x7f, 0x68, 0x47, 0xbd, 0xcc, 0x16, 0xfb, 0x3d, 0xbf, 0x84, 0x22, 0x3d,
  0xf1, 0x56, 0xb5, 0x3d, 0xda, 0xc0, 0x0a, 0xbd, 0xa0, 0xb2, 0x95, 0xbd,
  0x74, 0xb6, 0xa8, 0xbd, 0xdd, 0x83, 0xbb, 0x3d, 0xfe, 0x7f, 0x56, 0xbe,
  0xf6, 0x02, 0xa4, 0x3c, 0x2f, 0x36, 0x34, 0x3e, 0xb9, 0x1b, 0x12, 0x3e,
  0x60, 0x0b, 0x4f, 0xbc, 0x94, 0x75, 0x33, 0xbe, 0xd2, 0x01, 0x72, 0xbe,
  0xd7, 0x88, 0x77, 0xbd, 0xbe, 0xe0, 0xe9, 0xbd, 0xc4, 0x69, 0xe9, 0x3d,
  0x29, 0x9f, 0xb7, 0x3c, 0xf9, 0x29, 0xe3, 0x3d, 0xed, 0x9a, 0x3f, 0x3e,
  0x9a, 0xe5, 0x4e, 0xbe, 0xe6, 0xfa, 0x45, 0xbe, 0xd1, 0x4e, 0x2f, 0xbe,
  0x8b, 0xb4, 0xff, 0x3d, 0xdf, 0x38, 0x44, 0x3e, 0x19, 0x03, 0x5c, 0xbe,
  0x13, 0xf9, 0x27, 0x3d, 0x8b, 0xac, 0x15, 0x3e, 0x43, 0xf7, 0x1b, 0x3e,
  0x9f, 0xa5, 0x98, 0x3d, 0x02, 0x01, 0x01, 0xbe, 0xc5, 0xf2, 0x41, 0xbe,
  0x02, 0x32, 0xcb, 0xbd, 0x05, 0x98, 0xe3, 0xbc, 0x07, 0xae, 0x34, 0x3e,
  0x23, 0xb1, 0xfd, 0xb9, 0x1e, 0x72, 0x2c, 0x3d, 0x4f, 0x7d, 0x5b, 0xbe,
  0xdb, 0xaf, 0x0e, 0x3e, 0xa7, 0x55, 0x6f, 0xbe, 0xb7, 0x40, 0x74, 0xbe,
  0xc9, 0xcb, 0x4c, 0x3e, 0x0e, 0x90, 0x87, 0xbd, 0x97, 0x73, 0x16, 0x3e,
  0xf5, 0xfe, 0x10, 0xbe, 0x09, 0xac, 0x19, 0x3e, 0xcd, 0x88, 0x1b, 0x3d,
  0x26, 0x53, 0xea, 0x3d, 0x7e, 0x1f, 0x75, 0xbe, 0x56, 0xd6, 0x05, 0x3e,
  0xbc, 0x3e, 0x11, 0x3e, 0xf2, 0x9e, 0xcf, 0x3d, 0x41, 0x8d, 0x7e, 0xbd,
  0x3c, 0xa8, 0x43, 0xbe, 0x36, 0x05, 0x7e, 0x3d, 0xad, 0x0b, 0x04, 0x3e,
  0x62, 0xd6, 0x04, 0x3e, 0xc0, 0xf3, 0xfc, 0xbc, 0x00, 0xd7, 0xff, 0x3d,
  0xde, 0x68, 0xa6, 0x3d, 0x71, 0x22, 0xef, 0xbd, 0xbe, 0x2a, 0x37, 0x3e,
  0x37, 0x4e, 0x09, 0xbe, 0x03, 0x46, 0x7d, 0x3d, 0xad, 0x86, 0x75, 0xbe,
  0xbf, 0x16, 0x14, 0x3e, 0x61, 0x68, 0xa2, 0x3d, 0x2f, 0x14, 0x0c, 0xbe,
  0x23, 0xc8, 0x34, 0x3e, 0x5b, 0x8e, 0x11, 0x3e, 0x90, 0x15, 0x05, 0xbe,
  0x64, 0xcd, 0x6f, 0x3d, 0xba, 0xb4, 0xd5, 0xbc, 0x41, 0xb3, 0x06, 0x3e,
  0x3e, 0x21, 0x37, 0xbd, 0x93, 0xf7, 0x04, 0x3e, 0x9e, 0xf7, 0x8b, 0x3d,
  0x34, 0x0e, 0x1b, 0x3e, 0x20, 0x50, 0x43, 0x3b, 0x5c, 0x6b, 0x55, 0xbe,
  0xa2, 0x12, 0x5d, 0xbe, 0xee, 0xc0, 0xcd, 0x3d, 0x86, 0x18, 0x10, 0x3e,
  0xc8, 0x47, 0xa5, 0xbc, 0x55, 0x02, 0x15, 0x3e, 0x5b, 0x71, 0x82, 0x3c,
  0x03, 0x2d, 0xa9, 0x3d, 0x14, 0xba, 0x1a, 0x3e, 0xe6, 0x1d, 0x1f, 0xbe,
  0x8c, 0xad, 0x55, 0xbe, 0xfa, 0xd7, 0x38, 0xbc, 0xe8, 0x07, 0x1f, 0xbd,
  0x6a, 0xdf, 0xda, 0x3d, 0x3d, 0x1f, 0x43, 0x3e, 0x00, 0xeb, 0x7f, 0xbe,
  0xd1, 0x3f, 0x21, 0x3e, 0x47, 0xc7, 0x56, 0x3d, 0x30, 0x07, 0xb9, 0xbd,
  0x40, 0x33, 0xe4, 0xbd, 0x4d, 0x6d, 0xeb, 0x3d, 0x8d, 0x13, 0x12, 0x3e,
  0xf9, 0xdd, 0xa2, 0x3d, 0x0c, 0xa6, 0x22, 0xbd, 0x87, 0x35, 0x24, 0x3e,
  0x57, 0xd0, 0x4c, 0x3d, 0x26, 0x41, 0xe9, 0x3d, 0xec, 0xc8, 0xea, 0x3d,
  0x3e, 0x26, 0xdd, 0x3d, 0x55, 0x57, 0x36, 0x3e, 0x0c, 0xed, 0x9f, 0x3d,
  0x65, 0x7b, 0x65, 0xbd, 0xcb, 0xb0, 0x16, 0x3e, 0xd4, 0xc9, 0xa1, 0x3d,
  0x8f, 0xa3, 0x37, 0xbe, 0xeb, 0xa8, 0x98, 0xbd, 0x31, 0x37, 0xa2, 0xbd,
  0xe8, 0x6e, 0x2c, 0x3e, 0xd1, 0x47, 0x1a, 0xbe, 0xc6, 0xf2, 0x16, 0xbe,
  0x9d, 0x55, 0x0b, 0x3e, 0x37, 0x14, 0x31, 0x3e, 0x26, 0x70, 0xcc, 0xbd,
  0xd7, 0xa6, 0x37, 0xbd, 0x8a, 0xcf, 0xb8, 0x3d, 0xac, 0xbb, 0xa4, 0xbd,
  0x03, 0xc4, 0x8a, 0xbc, 0xa0, 0x35, 0x28, 0x3d, 0x8a, 0x11, 0x8a, 0xbd,
  0x6d, 0x32, 0x8d, 0x3d, 0x98, 0x63, 0x9e, 0x3d, 0xde, 0x75, 0x2a, 0x3e,
  0x68, 0xa9, 0x42, 0xbc, 0x1c, 0x1a, 0xfe, 0xbd, 0x36, 0x14, 0xd7, 0x3d,
  0x33, 0x2e, 0x1f, 0xbe, 0xfb, 0x6f, 0x7d, 0x3e, 0xb9, 0xb6, 0xd5, 0xbd,
  0x55, 0xf8, 0x38, 0xbe, 0x2f, 0xea, 0xe7, 0xbd, 0xb7, 0x95, 0x40, 0x3e,
  0xce, 0xa4, 0x04, 0x3d, 0x13, 0xbf, 0x15, 0x3e, 0xa2, 0x2b, 0xf7, 0x3d,
  0xbb, 0x5a, 0x0f, 0x3e, 0xb3, 0x18, 0x3b, 0xbd, 0x2c, 0xaa, 0xfb, 0x3d,
  0x37, 0x30, 0x02, 0x3e, 0x42, 0xd7, 0x46, 0x3d, 0x06, 0xaa, 0xd6, 0xbc,
  0x7c, 0x3f, 0x4a, 0xbd, 0x15, 0x18, 0x84, 0x3d, 0x0c, 0x33, 0x06, 0xbd,
  0x90, 0xec, 0x78, 0x3d, 0x77, 0x02, 0x00, 0x3e, 0x7a, 0x4e, 0x85, 0xbd,
  0xc7, 0xe1, 0xe2, 0xbd, 0x3d, 0x24, 0x3d, 0x3e, 0xa3, 0x6b, 0xe2, 0xbd,
  0x16, 0x45, 0x1c, 0x3e, 0x72, 0x54, 0x19, 0x3e, 0x98, 0xf1, 0x27, 0x3d,
  0x42, 0x36, 0x0c, 0xbe, 0xd2, 0xf0, 0x54, 0xbd, 0x72, 0x0f, 0x38, 0xbd,
  0x71, 0x46, 0x01, 0x3e, 0x62, 0x9a, 0xac, 0x3d, 0x66, 0x05, 0xe3, 0x3c,
  0x0c, 0xf5, 0xd6, 0xbd, 0x18, 0xf6, 0xb8, 0x3d, 0xa4, 0x77, 0x93, 0xbd,
  0xc1, 0x9d, 0x9c, 0xbb, 0x58, 0x2e, 0x85, 0xbc, 0xa8, 0x0f, 0x57, 0xbe,
  0xd0, 0xac, 0x88, 0xbc, 0x7d, 0xe4, 0xd0, 0x3d, 0xbd, 0x3b, 0xe6, 0x3b,
  0x07, 0x73, 0x76, 0x3e, 0xcd, 0x6d, 0x67, 0x3b, 0x46, 0x6c, 0x31, 0xbd,
  0x3f, 0x28, 0x40, 0x3c, 0x66, 0xe1, 0x3d, 0x3e, 0xe3, 0x95, 0x47, 0x3e,
  0xc7, 0x75, 0xaf, 0x3c, 0x4b, 0xe1, 0x77, 0x3e, 0xfe, 0xf3, 0xba, 0x3d,
  0x70, 0xf4, 0x04, 0xbe, 0xcd, 0x05, 0x24, 0x3e, 0xd3, 0x11, 0xec, 0xbd,
  0x00, 0xf1, 0xcb, 0x3c, 0xb5, 0x59, 0x87, 0x3d, 0x30, 0x89, 0xae, 0xbd,
  0xc3, 0x7f, 0xdf, 0x3d, 0x2a, 0xc4, 0x6f, 0x3e, 0xe7, 0x8c, 0x4c, 0xbe,
  0xfa, 0x7e, 0x7e, 0xbd, 0xda, 0x75, 0x8a, 0x3d, 0x5e, 0x59, 0x04, 0xbe,
  0x08, 0x04, 0x77, 0x3d, 0xec, 0xf0, 0x1a, 0xbe, 0xfe, 0x66, 0x14, 0xbe,
  0x3d, 0xbe, 0x0e, 0x3c, 0x09, 0xf7, 0x57, 0x3e, 0xfc, 0xf0, 0x53, 0x3c,
  0xf7, 0x52, 0x4d, 0x3e, 0xc3, 0xf4, 0x11, 0x3e, 0x72, 0x89, 0x00, 0xbe,
  0xd3, 0xb9, 0x55, 0x3e, 0x19, 0xb4, 0x85, 0x3d, 0xe8, 0x4e, 0xf6, 0x3c,
  0x25, 0x64, 0xdd, 0x3d, 0xa4, 0x6a, 0xbd, 0x3c, 0x09, 0xeb, 0xce, 0xbd,
  0x1e, 0x88, 0xec, 0x3d, 0x1b, 0xf4, 0x19, 0xbe, 0x34, 0x91, 0x25, 0x3e,
  0x61, 0xe1, 0x8d, 0xbc, 0x38, 0x71, 0x8f, 0x3d, 0xbd, 0x32, 0x4e, 0xbe,
  0x16, 0xe6, 0x2b, 0xbd, 0x12, 0xb4, 0xe9, 0x3d, 0x36, 0x48, 0x82, 0x3d,
  0xc1, 0x70, 0x4a, 0x3e, 0x9a, 0x4f, 0xd3, 0xbd, 0x09, 0x35, 0x95, 0x3d,
  0x2a, 0xf3, 0x12, 0xbd, 0x70, 0x77, 0x39, 0xbe, 0x61, 0x60, 0x97, 0x3d,
  0x7b, 0xb5, 0x82, 0x3e, 0x59, 0xbc, 0x21, 0xbc, 0xc9, 0x89, 0xfc, 0xbd,
  0xfb, 0x84, 0x64, 0x3e, 0x09, 0x71, 0xd2, 0xbd, 0xb1, 0x0e, 0x43, 0xbd,
  0x06, 0x7f, 0x12, 0x3d, 0x11, 0xd5, 0xa6, 0x3d, 0x72, 0x6b, 0x14, 0xbe,
  0xb4, 0xe4, 0x14, 0x3d, 0xcf, 0x72, 0xd6, 0x3c, 0xd0, 0xb3, 0x4e, 0xbe,
  0x25, 0x82, 0x1d, 0x3e, 0x7c, 0xb8, 0x6c, 0xbd, 0xcb, 0x96, 0x60, 0x3d,
  0xb0, 0xb9, 0xfb, 0xbd, 0xa1, 0xf8, 0xf4, 0x3d, 0xa2, 0xad, 0x63, 0xbe,
  0x74, 0xb6, 0x03, 0x3e, 0xfc, 0x32, 0x61, 0x3e, 0x4b, 0x61, 0xeb, 0x3d,
  0x3f, 0xd5, 0x98, 0x3d, 0x37, 0x24, 0x5a, 0x3e, 0x0e, 0xe4, 0x45, 0xbe,
  0xb7, 0x9d, 0x55, 0xbe, 0x5c, 0x5d, 0x39, 0xbe, 0x52, 0x45, 0x02, 0x3e,
  0xd8, 0xb4, 0xa5, 0x3c, 0x52, 0x73, 0x8d, 0x3d, 0xaa, 0xc0, 0x93, 0x3d,
  0x9e, 0xe7, 0x8e, 0xbd, 0xf0, 0x1d, 0xc9, 0x3d, 0x38, 0x2f, 0x2d, 0xbd,
  0xbf, 0x1b, 0x14, 0xbe, 0x2d, 0x4b, 0x53, 0xbe, 0x49, 0xa8, 0x46, 0xbe,
  0x28, 0x54, 0x5d, 0xbd, 0x2e, 0x5f, 0x9e, 0x3d, 0x52, 0xee, 0xac, 0x3d,
  0x8e, 0xf6, 0x7b, 0xbd, 0x47, 0xa7, 0x07, 0x3e, 0x66, 0x60, 0x83, 0x3d,
  0x26, 0xfe, 0xa5, 0x3d, 0x40, 0x2d, 0x91, 0x3c, 0x80, 0x13, 0x79, 0xbc,
  0xb7, 0xbe, 0x1f, 0xbe, 0x78, 0x4d, 0xe2, 0xbd, 0xb4, 0x09, 0x9d, 0xbc,
  0xa8, 0x31, 0x9b, 0x3d, 0x32, 0x72, 0x80, 0x3d, 0x86, 0x42, 0x4a, 0xbe,
  0x00, 0x08, 0x9f, 0x3a, 0xd8, 0x70, 0x99, 0x3d, 0x59, 0x50, 0xa6, 0xbd,
  0xbe, 0xdd, 0xf9, 0x3d, 0x9d, 0xf1, 0x29, 0xbd, 0xd7, 0x3c, 0xfe, 0xbd,
  0x72, 0x94, 0x40, 0xbe, 0x3b, 0xb3, 0xf8, 0x3d, 0xd6, 0x04, 0xd8, 0x3d,
  0x9f, 0x80, 0x80, 0xbd, 0x88, 0x19, 0x05, 0x3e, 0xa8, 0x53, 0x15, 0x3d,
  0xce, 0x47, 0x8c, 0x3d, 0xb7, 0x7f, 0x0d, 0x3d, 0xf1, 0xa2, 0x1d, 0x3e,
  0x0a, 0xf4, 0x24, 0xbe, 0xe6, 0x6c, 0x0e, 0x3e, 0x9e, 0x3b, 0x2f, 0xbe,
  0x3f, 0xa9, 0x40, 0x3e, 0x30, 0xa8, 0xab, 0xbc, 0x25, 0xd0, 0x04, 0xbe,
  0x22, 0xd1, 0xd8, 0x3d, 0x98, 0xc5, 0x20, 0xbd, 0x2d, 0x60, 0x5f, 0x3a,
  0x7a, 0x1c, 0xfa, 0xbd, 0x38, 0xf6, 0x21, 0x3d, 0xdb, 0x18, 0xe3, 0xbd,
  0x6c, 0x7e, 0x4c, 0x3d, 0x40, 0x40, 0xaf, 0x3b, 0xb2, 0xd4, 0xae, 0xbd,
  0x89, 0x11, 0x52, 0xbc, 0x60, 0xc1, 0x59, 0x3e, 0xc3, 0xd3, 0x7b, 0x3d,
  0x59, 0x26, 0x21, 0x3e, 0x4e, 0x3d, 0x43, 0xbe, 0x34, 0x3f, 0x63, 0x3d,
  0x97, 0x3e, 0xad, 0x3d, 0x14, 0x85, 0x01, 0x3d, 0x71, 0x19, 0x38, 0x3e,
  0xbe, 0xfd, 0x07, 0x3e, 0xa0, 0x05, 0xc1, 0xbb, 0x80, 0xe6, 0x58, 0xbd,
  0x24, 0x10, 0x86, 0x3d, 0xbb, 0xa6, 0x55, 0x3e, 0x32, 0x9e, 0xd7, 0xbd,
  0x74, 0x91, 0xba, 0x3d, 0x50, 0xec, 0x1c, 0xbd, 0xe3, 0xf7, 0x8c, 0xbd,
  0x25, 0x28, 0x6b, 0xbd, 0xab, 0xcd, 0xb5, 0xbb, 0x8f, 0x86, 0x5e, 0xbe,
  0xac, 0x99, 0x05, 0xbe, 0xcf, 0x7f, 0x94, 0xbd, 0xac, 0x95, 0x13, 0xbe,
  0x76, 0x3a, 0xe3, 0x3d, 0xc2, 0xd2, 0x21, 0xbe, 0x2f, 0xbd, 0xfa, 0x3d,
  0x20, 0xc3, 0x03, 0xbe, 0xdb, 0x27, 0xa7, 0x3b, 0xaf, 0x9c, 0x3a, 0x3e,
  0x67, 0x52, 0x5f, 0xbe, 0xb8, 0x69, 0x30, 0xbe, 0xfc, 0x45, 0x20, 0xbe,
  0x3d, 0x66, 0x02, 0xbe, 0x9f, 0x3d, 0xef, 0xbd, 0x06, 0x61, 0x52, 0x3e,
  0xf5, 0x6c, 0xb7, 0x3d, 0x44, 0xba, 0x9e, 0xbd, 0x6c, 0xeb, 0x1b, 0xbe,
  0x9f, 0xde, 0x14, 0x3e, 0x85, 0x4c, 0xe6, 0xbd, 0x30, 0x24, 0x34, 0x3e,
  0x93, 0x7d, 0x94, 0x3e, 0x7e, 0x7d, 0xfb, 0xbd, 0x30, 0x03, 0x0c, 0x3e,
  0xd7, 0x00, 0x71, 0x3e, 0x8d, 0xd7, 0x23, 0x3e, 0x2e, 0x65, 0x05, 0xbe,
  0xe3, 0x8c, 0x62, 0xbc, 0xa4, 0xbe, 0xfa, 0x3c, 0xca, 0xae, 0x1d, 0x3e,
  0x00, 0xeb, 0x8d, 0x3e, 0x91, 0x8a, 0x98, 0x3e, 0xd9, 0x6a, 0x12, 0x3e,
  0xd3, 0x7f, 0xc2, 0xbd, 0x31, 0xf7, 0x5a, 0x3e, 0x5a, 0xcb, 0xd7, 0x3d,
  0xac, 0xc8, 0xec, 0xbd, 0x54, 0x01, 0x8c, 0x3e, 0x95, 0x7f, 0x8c, 0x3e,
  0x6f, 0xd5, 0x08, 0x3c, 0x08, 0xc2, 0x30, 0x3e, 0xf9, 0x1b, 0xdd, 0x3c,
  0x34, 0x48, 0x15, 0xbe, 0xc7, 0x56, 0xd1, 0xbd, 0x42, 0xf5, 0xd4, 0x3d,
  0x51, 0x2e, 0x1c, 0xbd, 0xc7, 0xf7, 0x0d, 0x3d, 0x10, 0xf2, 0x2a, 0xbc,
  0x70, 0xe5, 0x58, 0xbd, 0x89, 0x79, 0x88, 0x3d, 0x2b, 0x86, 0x4d, 0xbe,
  0x1e, 0xdc, 0xa5, 0xbd, 0x71, 0x31, 0x86, 0x3d, 0xe7, 0x52, 0xe0, 0x3d,
  0xd9, 0x47, 0x28, 0xbc, 0xa4, 0xd2, 0x8c, 0x3e, 0xac, 0xb9, 0x62, 0x3d,
  0xf8, 0xe9, 0x2a, 0x3e, 0x02, 0xce, 0x5a, 0x3e, 0x75, 0x7e, 0xcc, 0x3d,
  0x63, 0x91, 0x9b, 0x3e, 0x64, 0x60, 0x58, 0x3e, 0xef, 0xc9, 0xa1, 0x3e,
  0xeb, 0x0f, 0x49, 0x3e, 0x1e, 0x9b, 0x21, 0xbe, 0x63, 0x4c, 0x58, 0xbd,
  0xe3, 0xe9, 0x24, 0x3e, 0xd6, 0x8f, 0xff, 0x3d, 0x0d, 0x59, 0x10, 0xbe,
  0xa9, 0xb4, 0x10, 0x3e, 0xbd, 0x14, 0x05, 0xbe, 0xff, 0x7a, 0xb0, 0x3d,
  0xba, 0x1d, 0x4b, 0x3e, 0x52, 0x2e, 0xb8, 0xbd, 0x29, 0xbd, 0x51, 0x3e,
  0x48, 0x57, 0x04, 0xbe, 0x83, 0xe5, 0x48, 0x3d, 0x72, 0x2d, 0x88, 0x3e,
  0xc2, 0x52, 0x95, 0x3e, 0x27, 0xb8, 0x16, 0x3e, 0x6d, 0xce, 0xdf, 0xbd,
  0xb7, 0x77, 0x9f, 0xbd, 0xcd, 0xfc, 0x3e, 0x3e, 0x62, 0x26, 0x82, 0x3d,
  0xbf, 0xdf, 0x67, 0xbd, 0x85, 0x48, 0x89, 0x3e, 0x6c, 0xf6, 0x0b, 0x3e,
  0x61, 0xbc, 0x3c, 0xbd, 0xf2, 0xe9, 0xc5, 0xbd, 0x3e, 0x66, 0x70, 0xbd,
  0xf6, 0x41, 0x83, 0x3d, 0xde, 0x5d, 0x72, 0x3d, 0xe5, 0x2e, 0xee, 0x3d,
  0x4d, 0xe6, 0xf5, 0x3d, 0xd7, 0x5d, 0xb2, 0xbd, 0xd9, 0xea, 0xb5, 0xbd,
  0x29, 0x27, 0x0f, 0x3e, 0x30, 0xd3, 0xd1, 0x3d, 0x2a, 0xe2, 0xa3, 0xbd,
  0x06, 0x18, 0x53, 0xbe, 0x71, 0x2b, 0x0f, 0xbe, 0xfd, 0x32, 0x12, 0x3e,
  0x3f, 0x78, 0x03, 0xbe, 0x38, 0xe0, 0xbf, 0x3d, 0x24, 0xcb, 0xd7, 0xbd,
  0xbd, 0x18, 0xff, 0xbd, 0x02, 0x69, 0xa7, 0xbd, 0x76, 0x4b, 0x80, 0xbd,
  0x78, 0xac, 0x6a, 0x3e, 0x60, 0xff, 0xa2, 0xbd, 0x9a, 0xc7, 0x94, 0xbd,
  0xcc, 0xfe, 0x95, 0x3e, 0x5b, 0x09, 0x05, 0x3e, 0xb5, 0xbb, 0xef, 0x3d,
  0x67, 0x57, 0x57, 0xbe, 0xf0, 0x12, 0xe8, 0xbd, 0xe9, 0x3b, 0x0d, 0xbe,
  0x1c, 0xd8, 0x94, 0xbc, 0xd9, 0x7f, 0x85, 0x3e, 0xc6, 0x71, 0x75, 0xbd,
  0xa0, 0x46, 0x10, 0x3e, 0xfd, 0x85, 0x12, 0x3e, 0xd6, 0x02, 0x95, 0x3e,
  0x35, 0x42, 0x8c, 0xbd, 0x24, 0x4f, 0x02, 0x3d, 0x13, 0xd8, 0x00, 0x3e,
  0x9f, 0x6f, 0x1f, 0x3e, 0xc5, 0x11, 0xaf, 0xbd, 0x00, 0x20, 0xf3, 0x3b,
  0x7c, 0xae, 0x28, 0x3d, 0xf3, 0xeb, 0x20, 0x3e, 0xa6, 0xe0, 0xf5, 0x3d,
  0x71, 0xf6, 0xc6, 0xbd, 0x34, 0xcb, 0x4f, 0xbe, 0x9e, 0x18, 0x6a, 0xbd,
  0x29, 0x3f, 0x0e, 0xbd, 0xd9, 0xbf, 0x8e, 0xbd, 0x68, 0xba, 0x06, 0xbe,
  0xa1, 0xe4, 0x42, 0x3e, 0x18, 0xfa, 0xaf, 0xbd, 0x17, 0xaf, 0x45, 0xbe,
  0x9c, 0xc9, 0x5f, 0xbe, 0xd4, 0xf9, 0x1f, 0x3e, 0x8e, 0x11, 0x31, 0x3d,
  0xd8, 0xeb, 0x19, 0xbe, 0x4b, 0x32, 0x70, 0xbe, 0x1f, 0xaa, 0x0f, 0x3e,
  0xe7, 0xc9, 0x7f, 0xbd, 0xb6, 0xcb, 0x43, 0x3e, 0x72, 0x9c, 0xb0, 0xbd,
  0xa1, 0x80, 0xda, 0xbd, 0x6c, 0x4e, 0x90, 0xbb, 0x6c, 0xaf, 0x11, 0xbe,
  0x60, 0xf2, 0x37, 0x3e, 0x38, 0xa8, 0x40, 0x3e, 0x48, 0x94, 0x14, 0x3e,
  0x96, 0x12, 0x07, 0xbe, 0x69, 0xcb, 0x01, 0xbc, 0x9e, 0x8e, 0x0a, 0xbe,
  0x35, 0x34, 0x45, 0x3e, 0xff, 0xcb, 0x53, 0x3e, 0xa2, 0x52, 0xe8, 0x3d,
  0xe6, 0x88, 0xb5, 0xbd, 0x1a, 0xf5, 0xfc, 0x3d, 0xd5, 0x5a, 0x15, 0x3d,
  0x63, 0x2e, 0xc3, 0x3d, 0x23, 0xe9, 0x56, 0xbe, 0xb4, 0x5e, 0xcf, 0x3d,
  0x2e, 0xbd, 0x3f, 0x3e, 0xe9, 0x0e, 0x0b, 0xbd, 0x4c, 0xcd, 0xa0, 0xbd,
  0xcb, 0x54, 0xf8, 0x3d, 0x67, 0xde, 0x8b, 0xbc, 0x28, 0x9e, 0x34, 0x3d,
  0x16, 0xc3, 0x27, 0x3d, 0x84, 0xa9, 0xf7, 0xbd, 0xf1, 0x26, 0x1b, 0x3e,
  0xa3, 0x76, 0x14, 0xbe, 0x2a, 0x9f, 0x96, 0x3d, 0x40, 0x76, 0x50, 0x3b,
  0x53, 0x6e, 0x4f, 0xbe, 0x83, 0xc6, 0x0f, 0x3e, 0xd2, 0x7d, 0xac, 0xbd,
  0x2c, 0xa4, 0x5a, 0xbe, 0xcd, 0xbf, 0xc2, 0x3d, 0x38, 0xc2, 0x2e, 0xbe,
  0xa0, 0xa4, 0x28, 0xbe, 0xae, 0x2b, 0x1c, 0x3e, 0xcc, 0x35, 0x8e, 0xbd,
  0xc7, 0xb5, 0x4c, 0xbd, 0x8c, 0x93, 0x1e, 0x3d, 0x11, 0xc1, 0x44, 0xbe,
  0x44, 0x47, 0xc9, 0xbd, 0x4e, 0x68, 0x34, 0x3e, 0x81, 0xe5, 0xc9, 0xbd,
  0xcd, 0xad, 0x40, 0xbe, 0xba, 0xcb, 0x45, 0xbe, 0xed, 0x81, 0xdc, 0xbb,
  0x80, 0xe0, 0xae, 0xbd, 0x76, 0x55, 0x24, 0x3e, 0x95, 0x72, 0x5f, 0xbe,
  0x73, 0xa0, 0x18, 0x3e, 0x24, 0x80, 0x69, 0xbe, 0x90, 0xf6, 0x3e, 0x3e,
  0xfd, 0xdb, 0xfc, 0x3d, 0xa8, 0x26, 0x42, 0xba, 0x3d, 0x85, 0xa8, 0xbd,
  0xf8, 0x39, 0xa8, 0x3d, 0x06, 0x40, 0xff, 0x3d, 0x46, 0xe7, 0x0c, 0x3e,
  0x7b, 0x51, 0x56, 0x3e, 0x5a, 0xf0, 0x0f, 0xbe, 0x3f, 0x0d, 0x34, 0x3e,
  0x5c, 0xf5, 0xdc, 0x3b, 0x07, 0x42, 0x6d, 0xbe, 0xb4, 0x30, 0x02, 0x3d,
  0xc2, 0xd4, 0x2d, 0xbe, 0xda, 0x07, 0xf4, 0xbd, 0x14, 0x21, 0x54, 0xbe,
  0xbf, 0x94, 0x4e, 0xbe, 0xf7, 0x91, 0x84, 0xbd, 0x21, 0xcb, 0x76, 0xbc,
  0x9f, 0xf6, 0x88, 0x3d, 0x19, 0xb6, 0x52, 0x3a, 0x1c, 0x8e, 0x35, 0xbe,
  0xea, 0x10, 0x33, 0xbe, 0x87, 0x64, 0x3d, 0xbe, 0x25, 0x91, 0xa3, 0x3d,
  0x47, 0x69, 0x25, 0x3e, 0x06, 0xb5, 0xb0, 0xbd, 0xde, 0x3b, 0xf6, 0x3d,
  0x44, 0x9c, 0xe8, 0x3d, 0x34, 0x13, 0x38, 0x3e, 0xa2, 0xba, 0x59, 0xbe,
  0x7b, 0x39, 0x3f, 0x3e, 0xdc, 0xd8, 0xd0, 0xbd, 0x64, 0x03, 0x7b, 0x3d,
  0xb2, 0xf6, 0x1f, 0x3e, 0x0b, 0x3c, 0x4a, 0x3d, 0x31, 0x61, 0x0f, 0x3e,
  0x92, 0xc4, 0x2e, 0x3e, 0x0d, 0x64, 0xf8, 0xbd, 0x24, 0x3c, 0x19, 0x3d,
  0xc6, 0x87, 0x82, 0x3d, 0x9d, 0xa5, 0x1e, 0x3d, 0xfc, 0x6a, 0x55, 0xbe,
  0x26, 0x63, 0x6f, 0xbe, 0x16, 0x30, 0x95, 0x3d, 0x0e, 0xc3, 0xf6, 0x3d,
  0x85, 0x76, 0x2b, 0x3e, 0x53, 0xe0, 0x40, 0x3e, 0x3f, 0xca, 0x65, 0xbe,
  0x8d, 0xc0, 0x9a, 0x3c, 0x93, 0xf5, 0x5e, 0xbe, 0x42, 0x1b, 0xbe, 0xbd,
  0x12, 0x95, 0xc0, 0x3c, 0xd7, 0x4c, 0x15, 0xbe, 0x15, 0x0f, 0x2f, 0x3e,
  0x84, 0xba, 0x34, 0xbe, 0x6d, 0xb9, 0x15, 0x3e, 0xbe, 0x42, 0x6f, 0xbe,
  0xf6, 0x28, 0x40, 0xbe, 0x00, 0xb9, 0x45, 0x3e, 0x45, 0xf6, 0x28, 0xbe,
  0x3c, 0x0c, 0x00, 0x3e, 0x1b, 0x24, 0x22, 0x3e, 0xb6, 0x14, 0x32, 0x3e,
  0x0c, 0x4b, 0x9c, 0x3d, 0xe3, 0xe9, 0x28, 0x3e, 0x40, 0x2b, 0x42, 0x3d,
  0x07, 0x30, 0x78, 0x3d, 0x38, 0xad, 0x5b, 0xbc, 0x70, 0x1d, 0x05, 0xbe,
  0xc1, 0xb4, 0xbb, 0xbc, 0x24, 0x90, 0x10, 0x3d, 0xbe, 0xae, 0xfb, 0x3d,
  0x4c, 0xb4, 0xc6, 0xbd, 0x6a, 0x74, 0x09, 0xbe, 0x65, 0x5d, 0x46, 0x3e,
  0xb6, 0xd5, 0x05, 0x3e, 0xa4, 0x19, 0xb4, 0x3d, 0x10, 0x9c, 0xb1, 0x3c,
  0xd8, 0x6d, 0x51, 0xbe, 0x3d, 0xd2, 0x94, 0xbd, 0x19, 0x9f, 0xc5, 0xbd,
  0xc8, 0x18, 0x5c, 0xbe, 0x15, 0x81, 0x06, 0xbd, 0x1f, 0x1f, 0xb8, 0xbd,
  0x36, 0x4b, 0xca, 0x3d, 0x6a, 0xac, 0x15, 0xbe, 0x50, 0xef, 0xa0, 0xbc,
  0x60, 0x22, 0x31, 0xbc, 0xcb, 0x73, 0xf3, 0xbd, 0x92, 0x8c, 0x3d, 0x3e,
  0x08, 0xf9, 0x3e, 0x3e, 0x2e, 0x8e, 0x44, 0x3e, 0xb2, 0x7d, 0x9d, 0x3d,
  0x8b, 0xf1, 0x07, 0x3e, 0xc5, 0x7b, 0x2d, 0x3d, 0x8a, 0x6c, 0x54, 0x3d,
  0x41, 0x77, 0x09, 0xbc, 0xb4, 0x4b, 0x13, 0xbe, 0xfa, 0x93, 0x39, 0xbd,
  0xd4, 0x70, 0x4d, 0xbe, 0x40, 0x9e, 0xf4, 0x3b, 0x89, 0x51, 0x1a, 0xbe,
  0x80, 0x3d, 0x65, 0xbd, 0x9f, 0x79, 0x1b, 0xbd, 0xd5, 0x74, 0xf4, 0x3d,
  0x53, 0x9f, 0x57, 0xbe, 0xaa, 0xca, 0x19, 0xbe, 0x7c, 0x9e, 0x84, 0x3d,
  0xbd, 0x9a, 0x58, 0xbe, 0x17, 0x64, 0x57, 0xbe, 0xc6, 0x7d, 0x2d, 0xbe,
  0xb3, 0x72, 0x0c, 0xbe, 0x4e, 0xf9, 0xf0, 0xbd, 0x92, 0x6f, 0xf8, 0xbd,
  0x7a, 0x0f, 0x47, 0xbe, 0xaf, 0x9a, 0xdc, 0x3d, 0x1c, 0x49, 0x15, 0x3d,
  0xeb, 0xeb, 0x26, 0x3e, 0x3e, 0x64, 0xa0, 0xbd, 0x72, 0x28, 0xd2, 0xbd,
  0x91, 0xec, 0x2f, 0xbc, 0x70, 0xb9, 0xf4, 0xbd, 0x30, 0x2f, 0x91, 0xbc,
  0x48, 0x95, 0x41, 0xbe, 0x74, 0xac, 0xfc, 0x3d, 0x25, 0xc9, 0x31, 0x3e,
  0xce, 0x40, 0xc0, 0xbd, 0xd1, 0xde, 0xf0, 0x3d, 0xa3, 0x98, 0xc7, 0x3d,
  0x7d, 0xd5, 0x3c, 0xbd, 0xdb, 0xbb, 0x40, 0xbe, 0xc9, 0xb2, 0xc0, 0xbd,
  0xb6, 0x70, 0xa1, 0xbd, 0x35, 0x5c, 0x25, 0xbe, 0x47, 0x0f, 0x38, 0xbe,
  0xc9, 0x6e, 0x02, 0xbe, 0xe5, 0xa0, 0x6b, 0x3c, 0xa9, 0x14, 0x16, 0xbd,
  0x90, 0x6a, 0xc2, 0x3d, 0xd9, 0x90, 0x04, 0xbe, 0xea, 0x6c, 0x10, 0x3e,
  0xfe, 0xbd, 0xc0, 0xbd, 0xdf, 0xe8, 0x02, 0x3e, 0x8d, 0x7a, 0x18, 0xbe,
  0x0e, 0x05, 0x78, 0xbd, 0xf5, 0x29, 0xb7, 0xbd, 0x4f, 0xda, 0xdf, 0xbd,
  0xec, 0xc1, 0x18, 0x3e, 0xa3, 0xc4, 0x3e, 0x3e, 0xc3, 0x8b, 0x50, 0x3d,
  0x2a, 0xad, 0xc9, 0x3d, 0xca, 0xd5, 0x94, 0xbd, 0x49, 0x87, 0xb2, 0x3d,
  0xd5, 0x50, 0x76, 0x3e, 0xc3, 0x76, 0x3e, 0x3d, 0x33, 0x52, 0x4d, 0xbd,
  0xcd, 0xef, 0xb8, 0xbc, 0x73, 0x61, 0x38, 0xbe, 0x55, 0x08, 0xf4, 0xbd,
  0x33, 0x0f, 0xd1, 0xbd, 0x44, 0x1e, 0x17, 0x3c, 0xea, 0xa6, 0x35, 0x3c,
  0x83, 0x28, 0x9f, 0xbc, 0xa8, 0x32, 0xa6, 0x3d, 0xc8, 0x81, 0x8e, 0xbd,
  0x43, 0x4e, 0x4e, 0x3e, 0xcb, 0xba, 0x14, 0xbe, 0xc0, 0x21, 0xa8, 0x3c,
  0x4c, 0x25, 0x3d, 0xbd, 0x27, 0x6f, 0x24, 0x3e, 0x29, 0xf4, 0x0d, 0xbd,
  0xdf, 0xa5, 0x0d, 0x3e, 0xc2, 0x7a, 0x25, 0xbe, 0x11, 0x05, 0x66, 0x3c,
  0x1d, 0xb8, 0x4a, 0x3d, 0x11, 0x35, 0x92, 0xbc, 0x83, 0x4c, 0xa7, 0xbd,
  0x90, 0x6e, 0xd2, 0x3c, 0xdd, 0x95, 0x08, 0xbe, 0x69, 0x61, 0x7c, 0xbd,
  0x95, 0xfb, 0x38, 0xbe, 0x4c, 0x6c, 0x2c, 0x3e, 0xe2, 0x89, 0xdb, 0xbd,
  0xb3, 0xfb, 0xd9, 0xbd, 0xc8, 0xcb, 0xf0, 0x3d, 0xde, 0xd4, 0x6e, 0x3d,
  0x8a, 0x18, 0x5d, 0x3d, 0xa8, 0x0b, 0x5b, 0x3e, 0x12, 0x33, 0x71, 0x3d,
  0xfb, 0xee, 0xa5, 0xbc, 0xb8, 0x0d, 0xaf, 0x3b, 0x39, 0xc2, 0xcd, 0xbd,
  0xbf, 0x34, 0x46, 0x3e, 0x3c, 0x5d, 0x55, 0x3e, 0x68, 0x69, 0x2a, 0xbe,
  0xf9, 0xa1, 0x3b, 0xbe, 0x07, 0x7a, 0x4a, 0xbe, 0x61, 0xf9, 0x63, 0xbd,
  0xf3, 0x43, 0x12, 0x3e, 0x48, 0x51, 0x91, 0xbd, 0x53, 0x89, 0x10, 0x3e,
  0xb0, 0x44, 0x17, 0xbe, 0xae, 0x38, 0x1c, 0x3e, 0x25, 0x07, 0xf5, 0x3d,
  0xff, 0xff, 0xf1, 0x3d, 0x8e, 0xd4, 0x10, 0xbe, 0xf0, 0x57, 0xf7, 0xbd,
  0x42, 0x8c, 0xe6, 0xbd, 0x70, 0x9b, 0x62, 0x3e, 0x1d, 0x43, 0x1a, 0xbe,
  0x01, 0xee, 0xa5, 0xbd, 0xc0, 0x44, 0xf2, 0x3d, 0xaa, 0xd3, 0x19, 0xbe,
  0x93, 0x5b, 0x08, 0x3d, 0x14, 0xd7, 0x38, 0x3d, 0x00, 0x27, 0x53, 0xbe,
  0x0d, 0x5f, 0x9d, 0xbd, 0xc1, 0x97, 0x3f, 0x3e, 0x5b, 0x24, 0x8f, 0x3c,
  0x5b, 0xc2, 0x87, 0x3d, 0x2a, 0xa0, 0x40, 0x3d, 0xed, 0x67, 0x48, 0x3e,
  0x9a, 0xda, 0x5e, 0x3b, 0x72, 0xcf, 0x39, 0x3d, 0x10, 0x02, 0x93, 0x3d,
  0x28, 0x76, 0x4e, 0x3d, 0xa7, 0x40, 0xae, 0x3d, 0x05, 0xd0, 0xde, 0xbd,
  0xb8, 0xa6, 0xb9, 0xbd, 0x3b, 0xb1, 0x73, 0xbd, 0xd0, 0x78, 0xd5, 0xbc,
  0x67, 0x7e, 0x57, 0x3e, 0x74, 0x32, 0x34, 0xbd, 0x4a, 0xcc, 0x7e, 0x3e,
  0x17, 0x50, 0x3a, 0x3c, 0x2b, 0x05, 0x27, 0x3d, 0xea, 0xb9, 0xe0, 0xbd,
  0x70, 0xb8, 0xb1, 0x3d, 0x61, 0xe5, 0x87, 0xbd, 0x87, 0xf5, 0x90, 0x3d,
  0x85, 0x7f, 0x1f, 0xbe, 0xbc, 0x54, 0x2b, 0xbe, 0x5f, 0x26, 0xd2, 0x3d,
  0x8e, 0x10, 0xe4, 0x3d, 0xb6, 0x49, 0xec, 0x3d, 0x97, 0x0b, 0x54, 0x3e,
  0x06, 0xb7, 0x49, 0xbe, 0x16, 0x45, 0x01, 0xbe, 0x3c, 0xfb, 0x43, 0xbe,
  0x87, 0x7b, 0x7e, 0x3d, 0x3d, 0x5a, 0xda, 0xbd, 0x08, 0x64, 0x03, 0x3e,
  0x0f, 0x99, 0x9e, 0xbd, 0x2d, 0x13, 0xf9, 0xbd, 0xea, 0x08, 0x4b, 0xbc,
  0x08, 0x0b, 0xd2, 0xbd, 0xa1, 0x68, 0x84, 0x3d, 0x88, 0x65, 0x09, 0x3e,
  0x97, 0xb8, 0x72, 0x3e, 0x46, 0x65, 0xf1, 0xbd, 0xf6, 0xc6, 0xd5, 0xbc,
  0xd0, 0x9a, 0x65, 0x3e, 0x02, 0x86, 0xe8, 0x3d, 0x2c, 0x01, 0x7d, 0x3d,
  0x93, 0x8e, 0xa8, 0x3c, 0xd6, 0x2e, 0xf1, 0xbd, 0xdb, 0x37, 0x37, 0x3e,
  0xbc, 0xc2, 0x5c, 0xbe, 0x9e, 0xd7, 0xba, 0x3d, 0x9f, 0x7f, 0x49, 0xbe,
  0xf2, 0x38, 0x8a, 0xbd, 0xdb, 0xe7, 0xd9, 0xbd, 0x33, 0x54, 0x89, 0xbd,
  0x72, 0x37, 0x24, 0x3e, 0x03, 0x97, 0x0c, 0x3e, 0xb6, 0xde, 0x3a, 0x3e,
  0x0f, 0x7c, 0xcd, 0xbd, 0x30, 0xb8, 0xf1, 0x3d, 0xe7, 0x6b, 0x38, 0x3e,
  0x4c, 0xab, 0x5c, 0xbd, 0xa3, 0x65, 0x46, 0xbd, 0x4a, 0xb6, 0x8b, 0x3d,
  0x5d, 0x4d, 0x8d, 0x3d, 0xc3, 0x85, 0x2e, 0xbe, 0x66, 0x9c, 0x25, 0x3e,
  0x06, 0x1c, 0x11, 0xbc, 0x28, 0xb1, 0x89, 0xbd, 0x78, 0xc5, 0xa3, 0xbd,
  0x3b, 0x52, 0x00, 0xbe, 0x06, 0x04, 0x88, 0xbe, 0x90, 0x3e, 0x78, 0xbd,
  0x35, 0xf5, 0x2f, 0x3e, 0x64, 0x9c, 0x6b, 0xbd, 0xfb, 0x3b, 0x26, 0x3e,
  0x01, 0x90, 0xca, 0xbd, 0x91, 0xac, 0x42, 0xbe, 0x2d, 0xd1, 0x3f, 0x3e,
  0x30, 0x12, 0x83, 0x3d, 0xa5, 0xdf, 0x84, 0xbd, 0x1b, 0xd8, 0xbe, 0xbd,
  0x27, 0x66, 0x33, 0x3e, 0x7d, 0x32, 0x73, 0x3d, 0xa9, 0x02, 0x20, 0x3e,
  0xb4, 0xd3, 0x32, 0x3e, 0x06, 0x17, 0x1a, 0x3e, 0x5e, 0x80, 0xc5, 0xbd,
  0xcd, 0xfc, 0x8c, 0x3c, 0x74, 0x41, 0x39, 0xbe, 0x84, 0x01, 0x30, 0x3d,
  0x49, 0x37, 0x48, 0xbc, 0x12, 0xe4, 0x03, 0xbe, 0xe4, 0x0e, 0x4e, 0x3d,
  0x9f, 0xd6, 0xf1, 0x3c, 0x74, 0xb8, 0x08, 0x3e, 0xf1, 0xd4, 0x3f, 0xbe,
  0x59, 0xac, 0x23, 0xbe, 0x03, 0xce, 0x4b, 0xbe, 0x2b, 0x27, 0x6c, 0xbe,
  0x94, 0x59, 0xcb, 0x3b, 0x5c, 0xe4, 0xaf, 0x3d, 0xc9, 0xc0, 0x0a, 0xbe,
  0x0a, 0xc3, 0x10, 0xbd, 0xa5, 0xae, 0x03, 0x3d, 0x04, 0x99, 0xf7, 0x3d,
  0x49, 0x44, 0x49, 0x3e, 0xc4, 0xef, 0xd8, 0x3d, 0xe7, 0xcc, 0x2f, 0xbe,
  0x32, 0x60, 0xc2, 0xbd, 0x0d, 0x20, 0xbc, 0xbc, 0xa2, 0xe5, 0x4f, 0xbe,
  0xb3, 0xd3, 0xd4, 0x3d, 0xba, 0x56, 0x23, 0xbe, 0x15, 0x53, 0x22, 0x3e,
  0x5e, 0x90, 0xc1, 0x3d, 0x15, 0x08, 0x31, 0xbd, 0x03, 0x94, 0x68, 0xbe,
  0x74, 0xb8, 0x7f, 0xbd, 0xcb, 0x15, 0x2d, 0xbe, 0xe6, 0x7d, 0x94, 0x3d,
  0x6b, 0xc6, 0x98, 0xbd, 0x30, 0x14, 0x6f, 0xbc, 0x02, 0xba, 0x55, 0xbe,
  0xe7, 0xf1, 0x13, 0xbe, 0xe1, 0xa0, 0x02, 0x3e, 0x69, 0xef, 0x55, 0x3d,
  0x49, 0x1b, 0x8e, 0xbc, 0xea, 0xb0, 0x55, 0xbe, 0x58, 0x85, 0xb5, 0xbd,
  0x37, 0x96, 0x6e, 0xbd, 0xbd, 0xe2, 0xf8, 0xbc, 0x34, 0x8b, 0x4e, 0x3d,
  0x06, 0x62, 0xc1, 0x3c, 0x8c, 0xda, 0x19, 0x3e, 0x85, 0x38, 0x0d, 0x3e,
  0xc4, 0x9c, 0xb2, 0x3d, 0xd8, 0x66, 0x18, 0xbe, 0x2f, 0x32, 0x49, 0x3e,
  0xb0, 0x15, 0x0a, 0xbe, 0xac, 0x60, 0x1e, 0x3d, 0xa4, 0x2d, 0x3a, 0xbe,
  0xe6, 0xe9, 0x06, 0xbe, 0xf0, 0x0f, 0x79, 0xbc, 0xfa, 0x7f, 0x0f, 0x3e,
  0x98, 0x12, 0x0f, 0x3d, 0xf4, 0xe0, 0x56, 0x3d, 0x18, 0x51, 0x91, 0x3b,
  0x5f, 0x66, 0x1c, 0xbd, 0xf6, 0x8e, 0x89, 0x3d, 0x45, 0xbd, 0xb6, 0x3d,
  0xbf, 0x07, 0xf8, 0xbd, 0xfa, 0x03, 0x61, 0xbe, 0x9f, 0x90, 0x97, 0xbc,
  0xd7, 0x03, 0x88, 0x3d, 0x51, 0x45, 0xe4, 0x3d, 0x64, 0xb8, 0x75, 0x3d,
  0xe4, 0x14, 0xc7, 0xbd, 0x8b, 0x53, 0x2a, 0x3e, 0x47, 0xf9, 0x4e, 0xbe,
  0x0a, 0x5c, 0x31, 0x3e, 0x17, 0x80, 0x26, 0x3e, 0x4b, 0x15, 0xea, 0x3c,
  0xfb, 0xef, 0x6b, 0xbd, 0x45, 0xbf, 0x29, 0xbe, 0x8c, 0xa4, 0x39, 0xbe,
  0xa5, 0x77, 0xd6, 0xbd, 0x8a, 0x54, 0x4c, 0x3e, 0x19, 0x7d, 0x20, 0x3e,
  0x02, 0x7b, 0x9e, 0x3d, 0x7a, 0x0b, 0x2e, 0xbe, 0xfa, 0x29, 0x08, 0x3e,
  0x34, 0xdd, 0x75, 0x3d, 0x08, 0x15, 0xe5, 0x3d, 0x59, 0xba, 0x0d, 0xbe,
  0xa7, 0x1b, 0x9a, 0xbd, 0xd9, 0xcf, 0xaa, 0xbd, 0x79, 0x14, 0x54, 0xbd,
  0xbc, 0x73, 0x31, 0xbe, 0x75, 0xe9, 0x3c, 0xbe, 0x1f, 0x24, 0xfe, 0x3d,
  0x74, 0x80, 0x06, 0x3e, 0x10, 0xf7, 0x37, 0xbe, 0xaa, 0xa9, 0x9c, 0x3c,
  0x5b, 0x2b, 0xe4, 0x3d, 0x5a, 0xd3, 0xab, 0xba, 0x32, 0x72, 0x91, 0xbd,
  0x54, 0x76, 0x1a, 0xbe, 0xaa, 0x31, 0xd9, 0x3d, 0xee, 0xe9, 0xc7, 0x3d,
  0x50, 0xf9, 0x89, 0xbd, 0xd7, 0x64, 0x42, 0xbc, 0x8b, 0x02, 0x1e, 0x3e,
  0xbb, 0x93, 0xa3, 0x3c, 0xd0, 0x70, 0x8a, 0x3b, 0x41, 0x60, 0x03, 0x3d,
  0xf3, 0xeb, 0x56, 0x3d, 0x4b, 0xd7, 0x06, 0xbe, 0x75, 0x0c, 0x88, 0x3c,
  0x3d, 0x6c, 0x25, 0x3e, 0x5c, 0x02, 0xac, 0xbd, 0x2d, 0x9a, 0x57, 0xbe,
  0x39, 0x6f, 0xd8, 0xbd, 0xc6, 0x54, 0x52, 0xbe, 0x2c, 0x1e, 0x62, 0x3d,
  0x88, 0x4b, 0x4b, 0xbd, 0xf5, 0x2e, 0x28, 0xbe, 0xe4, 0x18, 0xae, 0xbd,
  0xed, 0x79, 0x3e, 0x3c, 0xb1, 0x02, 0x90, 0x3d, 0xa5, 0x66, 0xe1, 0x3d,
  0xc1, 0x68, 0x10, 0xbe, 0xf3, 0xad, 0x9e, 0x3d, 0x58, 0x1d, 0x59, 0xbe,
  0xa3, 0x31, 0xfe, 0xbd, 0x01, 0x8c, 0x0a, 0xbe, 0xe0, 0x70, 0x3a, 0xbe,
  0x8d, 0xd8, 0x32, 0x3e, 0x97, 0x08, 0x13, 0x3e, 0x4a, 0xf9, 0x05, 0x3e,
  0x33, 0x82, 0x25, 0x3e, 0x77, 0xbb, 0x2b, 0x3e, 0x4e, 0xad, 0x9f, 0xbd,
  0x77, 0xc8, 0x51, 0x3e, 0x2a, 0x5e, 0x46, 0xbd, 0x43, 0x44, 0xea, 0xbd,
  0x5c, 0x5e, 0x28, 0x3d, 0x77, 0x3e, 0xf3, 0xbd, 0x9c, 0x00, 0x20, 0x3e,
  0x1f, 0xf5, 0xc5, 0x3d, 0x47, 0xcf, 0x09, 0xbe, 0xb5, 0x70, 0x40, 0x3e,
  0xe6, 0x64, 0x2f, 0xbe, 0xdc, 0x79, 0xb6, 0xbd, 0xb0, 0x73, 0x00, 0x3d,
  0xdd, 0x2c, 0xe3, 0xbd, 0x9c, 0xb6, 0x38, 0xbe, 0x00, 0x09, 0x8d, 0xbb,
  0x10, 0xfd, 0x40, 0x3e, 0x3e, 0x3a, 0xbe, 0xbd, 0xa4, 0x1d, 0xec, 0xbd,
  0x6c, 0x09, 0x08, 0x3e, 0x4a, 0x39, 0xc3, 0x3b, 0x8a, 0x8e, 0x1e, 0x3e,
  0x88, 0x0c, 0xd8, 0xbd, 0x48, 0x62, 0x85, 0x3d, 0x6b, 0x19, 0x57, 0xbe,
  0xd0, 0x7c, 0xbc, 0xbd, 0x81, 0x43, 0x04, 0xbe, 0xa7, 0xaf, 0x48, 0xbe,
  0x0d, 0x80, 0x24, 0x3e, 0x32, 0xa4, 0xee, 0xbc, 0x62, 0xcb, 0xda, 0x3d,
  0x9a, 0x0f, 0xe3, 0x3d, 0x3e, 0x9a, 0x2b, 0xbe, 0x0b, 0xdf, 0x4f, 0xbe,
  0xea, 0x4a, 0x36, 0xbe, 0xf8, 0x04, 0xb5, 0x3d, 0x0c, 0x5b, 0x21, 0x3e,
  0xfd, 0x8a, 0xc3, 0x3d, 0xa7, 0xba, 0xf5, 0x3d, 0x42, 0x06, 0x2e, 0x3e,
  0x3f, 0x99, 0x0f, 0x3e, 0x34, 0x8d, 0xe9, 0xbd, 0x64, 0x8e, 0xc7, 0x3d,
  0x4b, 0xad, 0xdd, 0xbd, 0xcd, 0x09, 0xd0, 0xbd, 0x6b, 0x5f, 0xe1, 0xba,
  0x03, 0x7c, 0x47, 0x3e, 0x92, 0xc9, 0x14, 0xbe, 0xbb, 0x8f, 0x9c, 0xbd,
  0x96, 0xe6, 0x1e, 0x3e, 0xbb, 0x6f, 0x92, 0x3d, 0xf5, 0xb6, 0x14, 0xbe,
  0xeb, 0xb9, 0x92, 0x3d, 0x31, 0x9a, 0x44, 0xbd, 0xf0, 0x1a, 0x36, 0x3e,
  0x55, 0xd2, 0x8a, 0xba, 0xa0, 0x34, 0xae, 0xbc, 0xbc, 0x24, 0xdc, 0xbd,
  0x9f, 0x26, 0x6d, 0x3e, 0x42, 0xfe, 0x48, 0x3e, 0xb6, 0xb3, 0xa5, 0x3d,
  0x94, 0xbe, 0xf1, 0x3d, 0x5e, 0x0b, 0x45, 0xbe, 0x48, 0x2a, 0xf0, 0x3d,
  0x51, 0x5c, 0x65, 0x3d, 0xd1, 0xad, 0x07, 0xbe, 0xee, 0xc6, 0x33, 0xbd,
  0xc1, 0x29, 0x68, 0x3e, 0xe6, 0x5c, 0x44, 0xbe, 0xda, 0x56, 0x29, 0xbe,
  0xee, 0x41, 0x5a, 0xbd, 0x24, 0xb0, 0x9b, 0xbd, 0x7c, 0x6f, 0x0a, 0x3e,
  0x38, 0x1a, 0xdf, 0x3d, 0x4a, 0xc7, 0x08, 0x3e, 0x83, 0xf0, 0x98, 0x3d,
  0x62, 0x60, 0xa1, 0x3d, 0xc8, 0x4e, 0x54, 0x3e, 0x90, 0x50, 0xa7, 0xbd,
  0xd0, 0x57, 0xcb, 0xbc, 0xc8, 0x67, 0x42, 0xbd, 0x6a, 0xbf, 0x18, 0x3e,
  0x71, 0x47, 0xf5, 0xbd, 0x1f, 0x5f, 0x0c, 0x3e, 0x98, 0x15, 0x65, 0x3c,
  0x9d, 0x5c, 0xbb, 0x3d, 0xec, 0x13, 0x6f, 0x3e, 0xab, 0xdb, 0x0b, 0x3e,
  0x84, 0x6f, 0x34, 0x3d, 0xea, 0x2e, 0xa8, 0x3d, 0x91, 0xd4, 0xb6, 0xbd,
  0x60, 0xbf, 0xb6, 0xbd, 0xb5, 0x62, 0x25, 0x3e, 0xe9, 0x85, 0x46, 0x3d,
  0xea, 0x7a, 0xdf, 0x3d, 0x47, 0x27, 0x0b, 0x3e, 0xc5, 0x82, 0x96, 0x3c,
  0x81, 0xec, 0xe5, 0xbd, 0x77, 0x09, 0xb3, 0xbd, 0xdb, 0x2a, 0x6f, 0x3e,
  0x11, 0x49, 0x18, 0xbe, 0x92, 0x5a, 0xed, 0xbd, 0xcd, 0x85, 0x17, 0x3d,
  0xe7, 0x64, 0x1f, 0x3e, 0x1e, 0x1a, 0xdd, 0x3c, 0x19, 0x1a, 0x6b, 0x3e,
  0x3c, 0x03, 0x30, 0xbd, 0xa1, 0x39, 0x0e, 0xbd, 0xbc, 0x71, 0x84, 0xbd,
  0xd6, 0x16, 0xba, 0x3d, 0xd0, 0x24, 0x96, 0xbc, 0x62, 0xd4, 0xf5, 0x3d,
  0x55, 0x0b, 0x10, 0x3e, 0x15, 0x21, 0x5b, 0x3e, 0x38, 0x1a, 0x15, 0x3e,
  0x7a, 0x9b, 0x17, 0xbe, 0xb2, 0x68, 0xae, 0xbd, 0xe5, 0x46, 0x13, 0x3d,
  0xce, 0xd1, 0xaa, 0xbc, 0xda, 0x09, 0x60, 0x3d, 0x14, 0x8e, 0x81, 0x3c,
  0xa5, 0x0e, 0x40, 0xbd, 0xa9, 0x3d, 0xd6, 0x3d, 0x9f, 0x5e, 0x9a, 0xbc,
  0x40, 0xa1, 0xc4, 0xbb, 0xaa, 0x1c, 0x25, 0xbd, 0x74, 0x04, 0x2b, 0xbe,
  0x34, 0xc0, 0x5b, 0xbd, 0x1c, 0x16, 0x89, 0xbd, 0xba, 0x80, 0x67, 0x3d,
  0xf0, 0x01, 0xe9, 0x3d, 0x95, 0xf1, 0xdd, 0x3c, 0x10, 0x09, 0x81, 0x3c,
  0x43, 0xa9, 0xe1, 0x3d, 0x08, 0x9a, 0x97, 0x3c, 0x48, 0xcb, 0x40, 0xbe,
  0xd0, 0x6b, 0x40, 0xbd, 0xcb, 0x70, 0xc3, 0x3d, 0xdf, 0x15, 0x33, 0x3e,
  0x1b, 0x39, 0xaa, 0x3d, 0x77, 0x8e, 0xd0, 0xbd, 0x1c, 0x13, 0x28, 0xbd,
  0xec, 0x94, 0xb4, 0xbd, 0x96, 0x64, 0x27, 0x3d, 0xd7, 0xc3, 0x62, 0x3c,
  0xe5, 0xe4, 0x14, 0x3c, 0x57, 0x82, 0x96, 0x3d, 0x95, 0x13, 0x3b, 0x3e,
  0x09, 0x69, 0x0a, 0x3e, 0x9f, 0x30, 0x4c, 0x3c, 0x08, 0x92, 0xeb, 0x3d,
  0xe9, 0xc4, 0xc0, 0xbd, 0xc0, 0xb7, 0xee, 0xbb, 0x16, 0x71, 0x4f, 0x3e,
  0xb2, 0x93, 0x7a, 0x3d, 0x69, 0xb7, 0x57, 0x3e, 0x0d, 0x0e, 0x1b, 0xbc,
  0xd1, 0x86, 0x05, 0xbe, 0x15, 0x2b, 0x2a, 0x3e, 0x4b, 0x7d, 0x3b, 0xbe,
  0x66, 0xfd, 0xff, 0xff, 0x10, 0x00, 0x00, 0x00, 0x07, 0x00, 0x00, 0x00,
  0x14, 0x00, 0x00, 0x00, 0x2c, 0x00, 0x00, 0x00, 0x02, 0x00, 0x00, 0x00,
  0x10, 0x00, 0x00, 0x00, 0x70, 0x00, 0x00, 0x00, 0x17, 0x00, 0x00, 0x00,
  0x73, 0x65, 0x71, 0x75, 0x65, 0x6e, 0x74, 0x69, 0x61, 0x6c, 0x2f, 0x64,
  0x65, 0x6e, 0x73, 0x65, 0x2f, 0x4d, 0x61, 0x74, 0x4d, 0x75, 0x6c, 0x00,
  0xd0, 0xfc, 0xff, 0xff, 0xda, 0xfd, 0xff, 0xff, 0x04, 0x00, 0x00, 0x00,
  0x08, 0x00, 0x00, 0x00, 0xff, 0xff, 0xff, 0xff, 0x70, 0x00, 0x00, 0x00,
  0x00, 0x00, 0x0e, 0x00, 0x18, 0x00, 0x08, 0x00, 0x07, 0x00, 0x0c, 0x00,
  0x10, 0x00, 0x14, 0x00, 0x0e, 0x00, 0x00, 0x00, 0x00, 0x00, 0x00, 0x02,
  0x10, 0x00, 0x00, 0x00, 0x06, 0x00, 0x00, 0x00, 0x10, 0x00, 0x00, 0x00,
  0x2c, 0x00, 0x00, 0x00, 0x01, 0x00, 0x00, 0x00, 0x02, 0x00, 0x00, 0x00,
  0x18, 0x00, 0x00, 0x00, 0x73, 0x65, 0x71, 0x75, 0x65, 0x6e, 0x74, 0x69,
  0x61, 0x6c, 0x2f, 0x66, 0x6c, 0x61, 0x74, 0x74, 0x65, 0x6e, 0x2f, 0x43,
  0x6f, 0x6e, 0x73, 0x74, 0x00, 0x00, 0x00, 0x00, 0x38, 0xfd, 0xff, 0xff,
  0x42, 0xfe, 0xff, 0xff, 0x04, 0x00, 0x00, 0x00, 0x0c, 0x00, 0x00, 0x00,
  0x93, 0x0e, 0xff, 0xbd, 0x9e, 0x4a, 0xbc, 0xbd, 0xb7, 0xf4, 0xf6, 0x3d,
  0x26, 0xfe, 0xff, 0xff, 0x10, 0x00, 0x00, 0x00, 0x05, 0x00, 0x00, 0x00,
  0x10, 0x00, 0x00, 0x00, 0x44, 0x00, 0x00, 0x00, 0x01, 0x00, 0x00, 0x00,
  0x03, 0x00, 0x00, 0x00, 0x32, 0x00, 0x00, 0x00, 0x73, 0x65, 0x71, 0x75,
  0x65, 0x6e, 0x74, 0x69, 0x61, 0x6c, 0x2f, 0x64, 0x65, 0x6e, 0x73, 0x65,
  0x5f, 0x31, 0x2f, 0x42, 0x69, 0x61, 0x73, 0x41, 0x64, 0x64, 0x2f, 0x52,
  0x65, 0x61, 0x64, 0x56, 0x61, 0x72, 0x69, 0x61, 0x62, 0x6c, 0x65, 0x4f,
  0x70, 0x2f, 0x72, 0x65, 0x73, 0x6f, 0x75, 0x72, 0x63, 0x65, 0x00, 0x00,
  0xa8, 0xfd, 0xff, 0xff, 0xb2, 0xfe, 0xff, 0xff, 0x04, 0x00, 0x00, 0x00,
  0x40, 0x00, 0x00, 0x00, 0xa9, 0xc0, 0x74, 0xbc, 0x11, 0x81, 0x02, 0x3d,
  0xb6, 0x0d, 0xfe, 0x3c, 0x42, 0x95, 0xfb, 0xbc, 0x30, 0x1b, 0xca, 0xbc,
  0x00, 0xf6, 0x65, 0xbc, 0x89, 0x28, 0xcf, 0xbc, 0xd0, 0xbf, 0xf9, 0x3c,
  0x5b, 0x46, 0x01, 0xbc, 0x44, 0x07, 0xd1, 0x3d, 0x6b, 0x6d, 0xc9, 0xbc,
  0x32, 0x07, 0xbe, 0xbc, 0x66, 0x18, 0xd1, 0x3c, 0xa9, 0x62, 0xab, 0xbc,
  0x8a, 0xa8, 0x78, 0xbc, 0x6d, 0x53, 0xba, 0x3c, 0xca, 0xfe, 0xff, 0xff,
  0x10, 0x00, 0x00, 0x00, 0x04, 0x00, 0x00, 0x00, 0x10, 0x00, 0x00, 0x00,
  0x44, 0x00, 0x00, 0x00, 0x01, 0x00, 0x00, 0x00, 0x10, 0x00, 0x00, 0x00,
  0x30, 0x00, 0x00, 0x00, 0x73, 0x65, 0x71, 0x75, 0x65, 0x6e, 0x74, 0x69,
  0x61, 0x6c, 0x2f, 0x64, 0x65, 0x6e, 0x73, 0x65, 0x2f, 0x42, 0x69, 0x61,
  0x73, 0x41, 0x64, 0x64, 0x2f, 0x52, 0x65, 0x61, 0x64, 0x56, 0x61, 0x72,
  0x69, 0x61, 0x62, 0x6c, 0x65, 0x4f, 0x70, 0x2f, 0x72, 0x65, 0x73, 0x6f,
  0x75, 0x72, 0x63, 0x65, 0x00, 0x00, 0x00, 0x00, 0x4c, 0xfe, 0xff, 0xff,
  0x56, 0xff, 0xff, 0xff, 0x04, 0x00, 0x00, 0x00, 0x40, 0x00, 0x00, 0x00,
  0xf2, 0xa0, 0xbe, 0xbc, 0x6c, 0x3b, 0xb2, 0x3d, 0x8d, 0x53, 0xb9, 0xbc,
  0x01, 0x95, 0xad, 0x3c, 0x79, 0x41, 0xb1, 0xbc, 0x71, 0xd7, 0xb6, 0xbc,
  0x97, 0x99, 0x94, 0xbc, 0x54, 0x98, 0xb8, 0x3c, 0xb6, 0xcb, 0x00, 0x3d,
  0xa5, 0xd0, 0xf6, 0x3c, 0xcc, 0x32, 0x43, 0xbc, 0x2e, 0x06, 0xc3, 0xbc,
  0xda, 0xf4, 0x42, 0x3c, 0x1e, 0xa9, 0xc2, 0xbc, 0xe8, 0xd8, 0xfd, 0xbc,
  0x06, 0x13, 0x71, 0xbc, 0x6e, 0xff, 0xff, 0xff, 0x10, 0x00, 0x00, 0x00,
  0x03, 0x00, 0x00, 0x00, 0x10, 0x00, 0x00, 0x00, 0x48, 0x00, 0x00, 0x00,
  0x01, 0x00, 0x00, 0x00, 0x10, 0x00, 0x00, 0x00, 0x33, 0x00, 0x00, 0x00,
  0x73, 0x65, 0x71, 0x75, 0x65, 0x6e, 0x74, 0x69, 0x61, 0x6c, 0x2f, 0x63,
  0x6f, 0x6e, 0x76, 0x32, 0x64, 0x5f, 0x31, 0x2f, 0x42, 0x69, 0x61, 0x73,
  0x41, 0x64, 0x64, 0x2f, 0x52, 0x65, 0x61, 0x64, 0x56, 0x61, 0x72, 0x69,
  0x61, 0x62, 0x6c, 0x65, 0x4f, 0x70, 0x2f, 0x72, 0x65, 0x73, 0x6f, 0x75,
  0x72, 0x63, 0x65, 0x00, 0x04, 0x00, 0x06, 0x00, 0x04, 0x00, 0x00, 0x00,
  0x00, 0x00, 0x06, 0x00, 0x08, 0x00, 0x04, 0x00, 0x06, 0x00, 0x00, 0x00,
  0x04, 0x00, 0x00, 0x00, 0x20, 0x00, 0x00, 0x00, 0xd2, 0xb5, 0xe6, 0xbc,
  0x7a, 0xfa, 0xbe, 0xbc, 0x0d, 0x77, 0x4e, 0xbc, 0x4e, 0x88, 0x38, 0xbb,
  0x8a, 0x3e, 0xce, 0x3c, 0xfa, 0x59, 0x6e, 0xbc, 0xcb, 0x78, 0x10, 0xbb,
  0x22, 0x4d, 0x71, 0xbc, 0x00, 0x00, 0x0e, 0x00, 0x14, 0x00, 0x04, 0x00,
  0x00, 0x00, 0x08, 0x00, 0x0c, 0x00, 0x10, 0x00, 0x0e, 0x00, 0x00, 0x00,
  0x10, 0x00, 0x00, 0x00, 0x02, 0x00, 0x00, 0x00, 0x10, 0x00, 0x00, 0x00,
  0x44, 0x00, 0x00, 0x00, 0x01, 0x00, 0x00, 0x00, 0x08, 0x00, 0x00, 0x00,
  0x31, 0x00, 0x00, 0x00, 0x73, 0x65, 0x71, 0x75, 0x65, 0x6e, 0x74, 0x69,
  0x61, 0x6c, 0x2f, 0x63, 0x6f, 0x6e, 0x76, 0x32, 0x64, 0x2f, 0x42, 0x69,
  0x61, 0x73, 0x41, 0x64, 0x64, 0x2f, 0x52, 0x65, 0x61, 0x64, 0x56, 0x61,
  0x72, 0x69, 0x61, 0x62, 0x6c, 0x65, 0x4f, 0x70, 0x2f, 0x72, 0x65, 0x73,
  0x6f, 0x75, 0x72, 0x63, 0x65, 0x00, 0x00, 0x00, 0x90, 0xff, 0xff, 0xff,
  0x14, 0x00, 0x18, 0x00, 0x04, 0x00, 0x00, 0x00, 0x08, 0x00, 0x0c, 0x00,
  0x10, 0x00, 0x00, 0x00, 0x00, 0x00, 0x14, 0x00, 0x14, 0x00, 0x00, 0x00,
  0x14, 0x00, 0x00, 0x00, 0x01, 0x00, 0x00, 0x00, 0x20, 0x00, 0x00, 0x00,
  0x44, 0x00, 0x00, 0x00, 0x2c, 0x00, 0x00, 0x00, 0x04, 0x00, 0x00, 0x00,
  0x01, 0x00, 0x00, 0x00, 0x40, 0x00, 0x00, 0x00, 0x03, 0x00, 0x00, 0x00,
  0x01, 0x00, 0x00, 0x00, 0x0c, 0x00, 0x00, 0x00, 0x63, 0x6f, 0x6e, 0x76,
  0x32, 0x64, 0x5f, 0x69, 0x6e, 0x70, 0x75, 0x74, 0x00, 0x00, 0x00, 0x00,
  0x04, 0x00, 0x00, 0x00, 0xff, 0xff, 0xff, 0xff, 0x40, 0x00, 0x00, 0x00,
  0x03, 0x00, 0x00, 0x00, 0x01, 0x00, 0x00, 0x00, 0xfc, 0xff, 0xff, 0xff,
  0x04, 0x00, 0x04, 0x00, 0x04, 0x00, 0x00, 0x00
};

unsigned int model_tflite_len = 13052;// Fill the int in `src/model.cc` here